{
  "version": "1.0",
  "truncation": null,
  "padding": null,
  "added_tokens": [
    {
      "id": 0,
      "content": "<s>",
      "single_word": false,
      "lstrip": false,
      "rstrip": false,
      "normalized": false,
      "special": true
    },
    {
      "id": 1,
      "content": "</s>",
      "single_word": false,
      "lstrip": false,
      "rstrip": false,
      "normalized": false,
      "special": true
    },
    {
      "id": 2,
      "content": "<unk>",
      "single_word": false,
      "lstrip": false,
      "rstrip": false,
      "normalized": false,
      "special": true
    },
    {
      "id": 3,
      "content": "<pad>",
      "single_word": false,
      "lstrip": false,
      "rstrip": false,
      "normalized": false,
      "special": true
    },
    {
      "id": 265,
      "content": "<|start_header_id|>",
      "lstrip": false,
      "normalized": false,
      "rstrip": false,
      "single_word": false,
      "special": true
    },
    {
      "id": 266,
      "content": "<|end_header_id|>",
      "lstrip": false,
      "normalized": false,
      "rstrip": false,
      "single_word": false,
      "special": true
    },
    {
      "id": 267,
      "content": "<|eot_id|>",
      "lstrip": false,
      "normalized": false,
      "rstrip": false,
      "single_word": false,
      "special": true
    }
  ],
  "normalizer": {
    "type": "Sequence",
    "normalizers": [
      {
        "type": "NFC"
      },
      {
        "type": "Replace",
        "pattern": {
          "Regex": "[\\r\\x00]"
        },
        "content": ""
      },
      {
        "type": "Replace",
        "pattern": {
          "Regex": "\\\n(?=[ \\w])"
        },
        "content": "\n "
      },
      {
        "type": "Replace",
        "pattern": {
          "Regex": "\\\t(?=[ \\w])"
        },
        "content": "\t "
      },
      {
        "type": "Replace",
        "pattern": {
          "Regex": "\\((?=[ \\w])"
        },
        "content": "( "
      },
      {
        "type": "Replace",
        "pattern": {
          "Regex": "\\[(?=[ \\w])"
        },
        "content": "[ "
      },
      {
        "type": "Replace",
        "pattern": {
          "Regex": "\\{(?=[ \\w])"
        },
        "content": "{ "
      },
      {
        "type": "Replace",
        "pattern": {
          "Regex": "/(?=[ \\w])"
        },
        "content": "/ "
      },
      {
        "type": "Replace",
        "pattern": {
          "Regex": "<(?=[ \\w])"
        },
        "content": "< "
      },
      {
        "type": "Replace",
        "pattern": {
          "Regex": "'(?=[ \\w])"
        },
        "content": "' "
      },
      {
        "type": "Replace",
        "pattern": {
          "Regex": "’(?=[ \\w])"
        },
        "content": "’ "
      },
      {
        "type": "Replace",
        "pattern": {
          "Regex": "\"(?=[ \\w])"
        },
        "content": "\" "
      },
      {
        "type": "Replace",
        "pattern": {
          "Regex": "«(?=[ \\w])"
        },
        "content": "« "
      },
      {
        "type": "Replace",
        "pattern": {
          "Regex": "“(?=[ \\w])"
        },
        "content": "“ "
      },
      {
        "type": "Replace",
        "pattern": {
          "Regex": "‘(?=[ \\w])"
        },
        "content": "‘ "
      },
      {
        "type": "Replace",
        "pattern": {
          "Regex": "‚(?=[ \\w])"
        },
        "content": "‚ "
      },
      {
        "type": "Replace",
        "pattern": {
          "Regex": "‹(?=[ \\w])"
        },
        "content": "‹ "
      },
      {
        "type": "Replace",
        "pattern": {
          "Regex": "—(?=[ \\w])"
        },
        "content": "— "
      },
      {
        "type": "Replace",
        "pattern": {
          "Regex": "–(?=[ \\w])"
        },
        "content": "– "
      },
      {
        "type": "Replace",
        "pattern": {
          "Regex": "―(?=[ \\w])"
        },
        "content": "― "
      },
      {
        "type": "Prepend",
        "prepend": " "
      },
      {
        "type": "Replace",
        "pattern": {
          "Regex": "[ \\u00A0]"
        },
        "content": "▁"
      }
    ]
  },
  "pre_tokenizer": null,
  "post_processor": {
    "type": "TemplateProcessing",
    "single": [
      {
        "SpecialToken": {
          "id": "<s>",
          "type_id": 0
        }
      },
      {
        "Sequence": {
          "id": "A",
          "type_id": 0
        }
      }
    ],
    "pair": [
      {
        "SpecialToken": {
          "id": "<s>",
          "type_id": 0
        }
      },
      {
        "Sequence": {
          "id": "A",
          "type_id": 0
        }
      },
      {
        "SpecialToken": {
          "id": "<s>",
          "type_id": 1
        }
      },
      {
        "Sequence": {
          "id": "B",
          "type_id": 1
        }
      }
    ],
    "special_tokens": {
      "<s>": {
        "id": "<s>",
        "ids": [
          0
        ],
        "tokens": [
          "<s>"
        ]
      }
    }
  },
  "decoder": {
    "type": "Sequence",
    "decoders": [
      {
        "type": "ByteFallback"
      },
      {
        "type": "Metaspace",
        "replacement": "▁",
        "add_prefix_space": true,
        "prepend_scheme": "always"
      },
      {
        "type": "Fuse"
      },
      {
        "type": "Replace",
        "pattern": {
          "String": "<|start_header_id|> "
        },
        "content": "<|start_header_id|>"
      },
      {
        "type": "Replace",
        "pattern": {
          "String": "<|end_header_id|> "
        },
        "content": "<|end_header_id|>"
      },
      {
        "type": "Replace",
        "pattern": {
          "String": "<|eot_id|> "
        },
        "content": "<|eot_id|>"
      },
      {
        "type": "Replace",
        "pattern": {
          "String": "\n "
        },
        "content": "\n"
      },
      {
        "type": "Replace",
        "pattern": {
          "String": "\t "
        },
        "content": "\t"
      },
      {
        "type": "Replace",
        "pattern": {
          "String": "( "
        },
        "content": "("
      },
      {
        "type": "Replace",
        "pattern": {
          "String": "[ "
        },
        "content": "["
      },
      {
        "type": "Replace",
        "pattern": {
          "String": "{ "
        },
        "content": "{"
      },
      {
        "type": "Replace",
        "pattern": {
          "String": "/ "
        },
        "content": "/"
      },
      {
        "type": "Replace",
        "pattern": {
          "String": "< "
        },
        "content": "<"
      },
      {
        "type": "Replace",
        "pattern": {
          "String": "' "
        },
        "content": "'"
      },
      {
        "type": "Replace",
        "pattern": {
          "String": "’ "
        },
        "content": "’"
      },
      {
        "type": "Replace",
        "pattern": {
          "String": "\" "
        },
        "content": "\""
      },
      {
        "type": "Replace",
        "pattern": {
          "String": "« "
        },
        "content": "«"
      },
      {
        "type": "Replace",
        "pattern": {
          "String": "“ "
        },
        "content": "“"
      },
      {
        "type": "Replace",
        "pattern": {
          "String": "‘ "
        },
        "content": "‘"
      },
      {
        "type": "Replace",
        "pattern": {
          "String": "‚ "
        },
        "content": "‚"
      },
      {
        "type": "Replace",
        "pattern": {
          "String": "‹ "
        },
        "content": "‹"
      },
      {
        "type": "Replace",
        "pattern": {
          "String": "— "
        },
        "content": "—"
      },
      {
        "type": "Replace",
        "pattern": {
          "String": "– "
        },
        "content": "–"
      },
      {
        "type": "Replace",
        "pattern": {
          "String": "― "
        },
        "content": "―"
      }
    ]
  },
  "model": {
    "type": "BPE",
    "dropout": null,
    "unk_token": "<unk>",
    "continuing_subword_prefix": null,
    "end_of_word_suffix": null,
    "fuse_unk": true,
    "byte_fallback": true,
    "vocab": {
      "<0x00>": 4,
      "<0x01>": 5,
      "<0x02>": 6,
      "<0x03>": 7,
      "<0x04>": 8,
      "<0x05>": 9,
      "<0x06>": 10,
      "<0x07>": 11,
      "<0x08>": 12,
      "<0x09>": 13,
      "<0x0A>": 14,
      "<0x0B>": 15,
      "<0x0C>": 16,
      "<0x0D>": 17,
      "<0x0E>": 18,
      "<0x0F>": 19,
      "<0x10>": 20,
      "<0x11>": 21,
      "<0x12>": 22,
      "<0x13>": 23,
      "<0x14>": 24,
      "<0x15>": 25,
      "<0x16>": 26,
      "<0x17>": 27,
      "<0x18>": 28,
      "<0x19>": 29,
      "<0x1A>": 30,
      "<0x1B>": 31,
      "<0x1C>": 32,
      "<0x1D>": 33,
      "<0x1E>": 34,
      "<0x1F>": 35,
      "<0x20>": 36,
      "<0x21>": 37,
      "<0x22>": 38,
      "<0x23>": 39,
      "<0x24>": 40,
      "<0x25>": 41,
      "<0x26>": 42,
      "<0x27>": 43,
      "<0x28>": 44,
      "<0x29>": 45,
      "<0x2A>": 46,
      "<0x2B>": 47,
      "<0x2C>": 48,
      "<0x2D>": 49,
      "<0x2E>": 50,
      "<0x2F>": 51,
      "<0x30>": 52,
      "<0x31>": 53,
      "<0x32>": 54,
      "<0x33>": 55,
      "<0x34>": 56,
      "<0x35>": 57,
      "<0x36>": 58,
      "<0x37>": 59,
      "<0x38>": 60,
      "<0x39>": 61,
      "<0x3A>": 62,
      "<0x3B>": 63,
      "<0x3C>": 64,
      "<0x3D>": 65,
      "<0x3E>": 66,
      "<0x3F>": 67,
      "<0x40>": 68,
      "<0x41>": 69,
      "<0x42>": 70,
      "<0x43>": 71,
      "<0x44>": 72,
      "<0x45>": 73,
      "<0x46>": 74,
      "<0x47>": 75,
      "<0x48>": 76,
      "<0x49>": 77,
      "<0x4A>": 78,
      "<0x4B>": 79,
      "<0x4C>": 80,
      "<0x4D>": 81,
      "<0x4E>": 82,
      "<0x4F>": 83,
      "<0x50>": 84,
      "<0x51>": 85,
      "<0x52>": 86,
      "<0x53>": 87,
      "<0x54>": 88,
      "<0x55>": 89,
      "<0x56>": 90,
      "<0x57>": 91,
      "<0x58>": 92,
      "<0x59>": 93,
      "<0x5A>": 94,
      "<0x5B>": 95,
      "<0x5C>": 96,
      "<0x5D>": 97,
      "<0x5E>": 98,
      "<0x5F>": 99,
      "<0x60>": 100,
      "<0x61>": 101,
      "<0x62>": 102,
      "<0x63>": 103,
      "<0x64>": 104,
      "<0x65>": 105,
      "<0x66>": 106,
      "<0x67>": 107,
      "<0x68>": 108,
      "<0x69>": 109,
      "<0x6A>": 110,
      "<0x6B>": 111,
      "<0x6C>": 112,
      "<0x6D>": 113,
      "<0x6E>": 114,
      "<0x6F>": 115,
      "<0x70>": 116,
      "<0x71>": 117,
      "<0x72>": 118,
      "<0x73>": 119,
      "<0x74>": 120,
      "<0x75>": 121,
      "<0x76>": 122,
      "<0x77>": 123,
      "<0x78>": 124,
      "<0x79>": 125,
      "<0x7A>": 126,
      "<0x7B>": 127,
      "<0x7C>": 128,
      "<0x7D>": 129,
      "<0x7E>": 130,
      "<0x7F>": 131,
      "<0x80>": 132,
      "<0x81>": 133,
      "<0x82>": 134,
      "<0x83>": 135,
      "<0x84>": 136,
      "<0x85>": 137,
      "<0x86>": 138,
      "<0x87>": 139,
      "<0x88>": 140,
      "<0x89>": 141,
      "<0x8A>": 142,
      "<0x8B>": 143,
      "<0x8C>": 144,
      "<0x8D>": 145,
      "<0x8E>": 146,
      "<0x8F>": 147,
      "<0x90>": 148,
      "<0x91>": 149,
      "<0x92>": 150,
      "<0x93>": 151,
      "<0x94>": 152,
      "<0x95>": 153,
      "<0x96>": 154,
      "<0x97>": 155,
      "<0x98>": 156,
      "<0x99>": 157,
      "<0x9A>": 158,
      "<0x9B>": 159,
      "<0x9C>": 160,
      "<0x9D>": 161,
      "<0x9E>": 162,
      "<0x9F>": 163,
      "<0xA0>": 164,
      "<0xA1>": 165,
      "<0xA2>": 166,
      "<0xA3>": 167,
      "<0xA4>": 168,
      "<0xA5>": 169,
      "<0xA6>": 170,
      "<0xA7>": 171,
      "<0xA8>": 172,
      "<0xA9>": 173,
      "<0xAA>": 174,
      "<0xAB>": 175,
      "<0xAC>": 176,
      "<0xAD>": 177,
      "<0xAE>": 178,
      "<0xAF>": 179,
      "<0xB0>": 180,
      "<0xB1>": 181,
      "<0xB2>": 182,
      "<0xB3>": 183,
      "<0xB4>": 184,
      "<0xB5>": 185,
      "<0xB6>": 186,
      "<0xB7>": 187,
      "<0xB8>": 188,
      "<0xB9>": 189,
      "<0xBA>": 190,
      "<0xBB>": 191,
      "<0xBC>": 192,
      "<0xBD>": 193,
      "<0xBE>": 194,
      "<0xBF>": 195,
      "<0xC0>": 196,
      "<0xC1>": 197,
      "<0xC2>": 198,
      "<0xC3>": 199,
      "<0xC4>": 200,
      "<0xC5>": 201,
      "<0xC6>": 202,
      "<0xC7>": 203,
      "<0xC8>": 204,
      "<0xC9>": 205,
      "<0xCA>": 206,
      "<0xCB>": 207,
      "<0xCC>": 208,
      "<0xCD>": 209,
      "<0xCE>": 210,
      "<0xCF>": 211,
      "<0xD0>": 212,
      "<0xD1>": 213,
      "<0xD2>": 214,
      "<0xD3>": 215,
      "<0xD4>": 216,
      "<0xD5>": 217,
      "<0xD6>": 218,
      "<0xD7>": 219,
      "<0xD8>": 220,
      "<0xD9>": 221,
      "<0xDA>": 222,
      "<0xDB>": 223,
      "<0xDC>": 224,
      "<0xDD>": 225,
      "<0xDE>": 226,
      "<0xDF>": 227,
      "<0xE0>": 228,
      "<0xE1>": 229,
      "<0xE2>": 230,
      "<0xE3>": 231,
      "<0xE4>": 232,
      "<0xE5>": 233,
      "<0xE6>": 234,
      "<0xE7>": 235,
      "<0xE8>": 236,
      "<0xE9>": 237,
      "<0xEA>": 238,
      "<0xEB>": 239,
      "<0xEC>": 240,
      "<0xED>": 241,
      "<0xEE>": 242,
      "<0xEF>": 243,
      "<0xF0>": 244,
      "<0xF1>": 245,
      "<0xF2>": 246,
      "<0xF3>": 247,
      "<0xF4>": 248,
      "<0xF5>": 249,
      "<0xF6>": 250,
      "<0xF7>": 251,
      "<0xF8>": 252,
      "<0xF9>": 253,
      "<0xFA>": 254,
      "<0xFB>": 255,
      "<0xFC>": 256,
      "<0xFD>": 257,
      "<0xFE>": 258,
      "<0xFF>": 259,
      "▁INST": 260,
      "▁SYS": 261,
      "▁[/": 262,
      "[/": 263,
      "▁<</": 264,
      "<unused8>": 268,
      "<unused9>": 269,
      "<unused10>": 270,
      "<unused11>": 271,
      "<unused12>": 272,
      "<unused13>": 273,
      "<unused14>": 274,
      "<unused15>": 275,
      "<unused16>": 276,
      "<unused17>": 277,
      "<unused18>": 278,
      "<unused19>": 279,
      "<unused20>": 280,
      "<unused21>": 281,
      "<unused22>": 282,
      "<unused23>": 283,
      "<unused24>": 284,
      "<unused25>": 285,
      "<unused26>": 286,
      "<unused27>": 287,
      "<unused28>": 288,
      "<unused29>": 289,
      "<unused30>": 290,
      "<unused31>": 291,
      "<unused32>": 292,
      "<unused33>": 293,
      "<unused34>": 294,
      "<unused35>": 295,
      "<unused36>": 296,
      "<unused37>": 297,
      "<unused38>": 298,
      "<unused39>": 299,
      "▁": 300,
      "▁▁": 301,
      "▁▁▁": 302,
      "▁▁▁▁": 303,
      "▁▁▁▁▁": 304,
      "▁▁▁▁▁▁": 305,
      "▁▁▁▁▁▁▁": 306,
      "▁▁▁▁▁▁▁▁": 307,
      "\t": 308,
      "\t\t": 309,
      "\t\t\t": 310,
      "\t\t\t\t": 311,
      "\n": 312,
      "\n\n": 313,
      "0": 314,
      "1": 315,
      "2": 316,
      "3": 317,
      "4": 318,
      "5": 319,
      "6": 320,
      "7": 321,
      "8": 322,
      "9": 323,
      " ": 324,
      "!": 325,
      "\"": 326,
      "#": 327,
      "$": 328,
      "%": 329,
      "&": 330,
      "'": 331,
      "(": 332,
      ")": 333,
      "*": 334,
      "+": 335,
      ",": 336,
      "-": 337,
      ".": 338,
      "/": 339,
      ":": 340,
      ";": 341,
      "<": 342,
      "=": 343,
      ">": 344,
      "?": 345,
      "@": 346,
      "A": 347,
      "B": 348,
      "C": 349,
      "D": 350,
      "E": 351,
      "F": 352,
      "G": 353,
      "H": 354,
      "I": 355,
      "J": 356,
      "K": 357,
      "L": 358,
      "M": 359,
      "N": 360,
      "O": 361,
      "P": 362,
      "Q": 363,
      "R": 364,
      "S": 365,
      "T": 366,
      "U": 367,
      "V": 368,
      "W": 369,
      "X": 370,
      "Y": 371,
      "Z": 372,
      "[": 373,
      "\\": 374,
      "]": 375,
      "^": 376,
      "_": 377,
      "`": 378,
      "a": 379,
      "b": 380,
      "c": 381,
      "d": 382,
      "e": 383,
      "f": 384,
      "g": 385,
      "h": 386,
      "i": 387,
      "j": 388,
      "k": 389,
      "l": 390,
      "m": 391,
      "n": 392,
      "o": 393,
      "p": 394,
      "q": 395,
      "r": 396,
      "s": 397,
      "t": 398,
      "u": 399,
      "v": 400,
      "w": 401,
      "x": 402,
      "y": 403,
      "z": 404,
      "{": 405,
      "|": 406,
      "}": 407,
      "~": 408,
      " ": 409,
      "¡": 410,
      "¢": 411,
      "£": 412,
      "¤": 413,
      "¥": 414,
      "¦": 415,
      "§": 416,
      "¨": 417,
      "©": 418,
      "«": 419,
      "¬": 420,
      "®": 421,
      "¯": 422,
      "°": 423,
      "±": 424,
      "²": 425,
      "³": 426,
      "´": 427,
      "µ": 428,
      "¶": 429,
      "·": 430,
      "¸": 431,
      "¹": 432,
      "»": 433,
      "¼": 434,
      "½": 435,
      "¾": 436,
      "¿": 437,
      "À": 438,
      "Á": 439,
      "Â": 440,
      "Ã": 441,
      "Ä": 442,
      "Å": 443,
      "Æ": 444,
      "Ç": 445,
      "È": 446,
      "É": 447,
      "Ê": 448,
      "Ë": 449,
      "Ì": 450,
      "Í": 451,
      "Î": 452,
      "Ï": 453,
      "Ð": 454,
      "Ñ": 455,
      "Ò": 456,
      "Ó": 457,
      "Ô": 458,
      "Õ": 459,
      "Ö": 460,
      "×": 461,
      "Ø": 462,
      "Ù": 463,
      "Ú": 464,
      "Û": 465,
      "Ü": 466,
      "Ý": 467,
      "Þ": 468,
      "ß": 469,
      "à": 470,
      "á": 471,
      "â": 472,
      "ã": 473,
      "ä": 474,
      "å": 475,
      "æ": 476,
      "ç": 477,
      "è": 478,
      "é": 479,
      "ê": 480,
      "ë": 481,
      "ì": 482,
      "í": 483,
      "î": 484,
      "ï": 485,
      "ð": 486,
      "ñ": 487,
      "ò": 488,
      "ó": 489,
      "ô": 490,
      "õ": 491,
      "ö": 492,
      "÷": 493,
      "ø": 494,
      "ù": 495,
      "ú": 496,
      "û": 497,
      "ü": 498,
      "ý": 499,
      "þ": 500,
      "ÿ": 501,
      "Ā": 502,
      "ā": 503,
      "Ă": 504,
      "ă": 505,
      "ą": 506,
      "Ć": 507,
      "ć": 508,
      "ĉ": 509,
      "ċ": 510,
      "Č": 511,
      "č": 512,
      "Ď": 513,
      "ď": 514,
      "Đ": 515,
      "đ": 516,
      "Ē": 517,
      "ē": 518,
      "ĕ": 519,
      "Ė": 520,
      "ė": 521,
      "ę": 522,
      "ě": 523,
      "ĝ": 524,
      "Ğ": 525,
      "ğ": 526,
      "Ġ": 527,
      "ġ": 528,
      "Ģ": 529,
      "ģ": 530,
      "Ħ": 531,
      "ħ": 532,
      "ĩ": 533,
      "Ī": 534,
      "ī": 535,
      "ĭ": 536,
      "į": 537,
      "İ": 538,
      "ı": 539,
      "Ķ": 540,
      "ķ": 541,
      "ĸ": 542,
      "ĺ": 543,
      "ļ": 544,
      "Ľ": 545,
      "ľ": 546,
      "Ł": 547,
      "ł": 548,
      "ń": 549,
      "ņ": 550,
      "ň": 551,
      "ŋ": 552,
      "Ō": 553,
      "ō": 554,
      "ŏ": 555,
      "Ő": 556,
      "ő": 557,
      "Œ": 558,
      "œ": 559,
      "ŕ": 560,
      "Ř": 561,
      "ř": 562,
      "Ś": 563,
      "ś": 564,
      "ŝ": 565,
      "Ş": 566,
      "ş": 567,
      "Š": 568,
      "š": 569,
      "Ţ": 570,
      "ţ": 571,
      "Ť": 572,
      "ť": 573,
      "ũ": 574,
      "Ū": 575,
      "ū": 576,
      "ŭ": 577,
      "ů": 578,
      "ű": 579,
      "ų": 580,
      "ŵ": 581,
      "ŷ": 582,
      "Ÿ": 583,
      "ź": 584,
      "Ż": 585,
      "ż": 586,
      "Ž": 587,
      "ž": 588,
      "ſ": 589,
      "Ɔ": 590,
      "Ə": 591,
      "Ɛ": 592,
      "ƒ": 593,
      "ơ": 594,
      "ư": 595,
      "ǎ": 596,
      "ǐ": 597,
      "ǒ": 598,
      "ǔ": 599,
      "ǚ": 600,
      "ǝ": 601,
      "Ǧ": 602,
      "ǧ": 603,
      "ǫ": 604,
      "ǵ": 605,
      "Ș": 606,
      "ș": 607,
      "Ț": 608,
      "ț": 609,
      "ȝ": 610,
      "ɐ": 611,
      "ɑ": 612,
      "ɒ": 613,
      "ɓ": 614,
      "ɔ": 615,
      "ɕ": 616,
      "ɖ": 617,
      "ɗ": 618,
      "ɘ": 619,
      "ə": 620,
      "ɛ": 621,
      "ɜ": 622,
      "ɞ": 623,
      "ɟ": 624,
      "ɡ": 625,
      "ɣ": 626,
      "ɤ": 627,
      "ɥ": 628,
      "ɦ": 629,
      "ɨ": 630,
      "ɩ": 631,
      "ɪ": 632,
      "ɫ": 633,
      "ɬ": 634,
      "ɯ": 635,
      "ɲ": 636,
      "ɳ": 637,
      "ɴ": 638,
      "ɵ": 639,
      "ɶ": 640,
      "ɸ": 641,
      "ɹ": 642,
      "ɽ": 643,
      "ɾ": 644,
      "ʀ": 645,
      "ʁ": 646,
      "ʂ": 647,
      "ʃ": 648,
      "ʈ": 649,
      "ʉ": 650,
      "ʊ": 651,
      "ʋ": 652,
      "ʌ": 653,
      "ʎ": 654,
      "ʏ": 655,
      "ʐ": 656,
      "ʑ": 657,
      "ʒ": 658,
      "ʕ": 659,
      "ʦ": 660,
      "ʧ": 661,
      "ʰ": 662,
      "ʱ": 663,
      "ʲ": 664,
      "ʳ": 665,
      "ʷ": 666,
      "ʹ": 667,
      "ʻ": 668,
      "ʼ": 669,
      "ʽ": 670,
      "ʾ": 671,
      "ʿ": 672,
      "ˀ": 673,
      "ˁ": 674,
      "ˆ": 675,
      "ˈ": 676,
      "ˉ": 677,
      "ˌ": 678,
      "ː": 679,
      "ˑ": 680,
      "˚": 681,
      "˜": 682,
      "ˠ": 683,
      "ˤ": 684,
      "˥": 685,
      "˧": 686,
      "˨": 687,
      "˩": 688,
      "΄": 689,
      "Ά": 690,
      "Έ": 691,
      "Ή": 692,
      "Ί": 693,
      "Ό": 694,
      "Ύ": 695,
      "ΐ": 696,
      "Α": 697,
      "Β": 698,
      "Γ": 699,
      "Δ": 700,
      "Ε": 701,
      "Ζ": 702,
      "Η": 703,
      "Θ": 704,
      "Ι": 705,
      "Κ": 706,
      "Λ": 707,
      "Μ": 708,
      "Ν": 709,
      "Ξ": 710,
      "Ο": 711,
      "Π": 712,
      "Ρ": 713,
      "Σ": 714,
      "Τ": 715,
      "Υ": 716,
      "Φ": 717,
      "Χ": 718,
      "Ψ": 719,
      "Ω": 720,
      "Ϊ": 721,
      "ά": 722,
      "έ": 723,
      "ή": 724,
      "ί": 725,
      "ΰ": 726,
      "α": 727,
      "β": 728,
      "γ": 729,
      "δ": 730,
      "ε": 731,
      "ζ": 732,
      "η": 733,
      "θ": 734,
      "ι": 735,
      "κ": 736,
      "λ": 737,
      "μ": 738,
      "ν": 739,
      "ξ": 740,
      "ο": 741,
      "π": 742,
      "ρ": 743,
      "ς": 744,
      "σ": 745,
      "τ": 746,
      "υ": 747,
      "φ": 748,
      "χ": 749,
      "ψ": 750,
      "ω": 751,
      "ϊ": 752,
      "ϋ": 753,
      "ό": 754,
      "ύ": 755,
      "ώ": 756,
      "ϒ": 757,
      "ϕ": 758,
      "ϲ": 759,
      "Ё": 760,
      "Ђ": 761,
      "Є": 762,
      "І": 763,
      "Ј": 764,
      "Љ": 765,
      "А": 766,
      "Б": 767,
      "В": 768,
      "Г": 769,
      "Д": 770,
      "Е": 771,
      "Ж": 772,
      "З": 773,
      "И": 774,
      "Й": 775,
      "К": 776,
      "Л": 777,
      "М": 778,
      "Н": 779,
      "О": 780,
      "П": 781,
      "Р": 782,
      "С": 783,
      "Т": 784,
      "У": 785,
      "Ф": 786,
      "Х": 787,
      "Ц": 788,
      "Ч": 789,
      "Ш": 790,
      "Щ": 791,
      "Ъ": 792,
      "Ы": 793,
      "Ь": 794,
      "Э": 795,
      "Ю": 796,
      "Я": 797,
      "а": 798,
      "б": 799,
      "в": 800,
      "г": 801,
      "д": 802,
      "е": 803,
      "ж": 804,
      "з": 805,
      "и": 806,
      "й": 807,
      "к": 808,
      "л": 809,
      "м": 810,
      "н": 811,
      "о": 812,
      "п": 813,
      "р": 814,
      "с": 815,
      "т": 816,
      "у": 817,
      "ф": 818,
      "х": 819,
      "ц": 820,
      "ч": 821,
      "ш": 822,
      "щ": 823,
      "ъ": 824,
      "ы": 825,
      "ь": 826,
      "э": 827,
      "ю": 828,
      "я": 829,
      "ѐ": 830,
      "ё": 831,
      "ђ": 832,
      "є": 833,
      "і": 834,
      "ї": 835,
      "ј": 836,
      "љ": 837,
      "њ": 838,
      "ћ": 839,
      "ў": 840,
      "џ": 841,
      "ѣ": 842,
      "ѧ": 843,
      "ғ": 844,
      "ҙ": 845,
      "Қ": 846,
      "қ": 847,
      "ҡ": 848,
      "ң": 849,
      "ү": 850,
      "ұ": 851,
      "ҳ": 852,
      "ӏ": 853,
      "ә": 854,
      "ө": 855,
      "Ա": 856,
      "Բ": 857,
      "Գ": 858,
      "Դ": 859,
      "Ե": 860,
      "Կ": 861,
      "Հ": 862,
      "Մ": 863,
      "Ն": 864,
      "Պ": 865,
      "Ս": 866,
      "Վ": 867,
      "Տ": 868,
      "ա": 869,
      "բ": 870,
      "գ": 871,
      "դ": 872,
      "ե": 873,
      "զ": 874,
      "է": 875,
      "ը": 876,
      "թ": 877,
      "ի": 878,
      "լ": 879,
      "խ": 880,
      "ծ": 881,
      "կ": 882,
      "հ": 883,
      "ղ": 884,
      "մ": 885,
      "յ": 886,
      "ն": 887,
      "շ": 888,
      "ո": 889,
      "չ": 890,
      "պ": 891,
      "ջ": 892,
      "ռ": 893,
      "ս": 894,
      "վ": 895,
      "տ": 896,
      "ր": 897,
      "ց": 898,
      "ւ": 899,
      "փ": 900,
      "ք": 901,
      "և": 902,
      "־": 903,
      "،": 904,
      "ـ": 905,
      "۰": 906,
      "।": 907,
      "०": 908,
      "་": 909,
      "།": 910,
      "ა": 911,
      "ბ": 912,
      "გ": 913,
      "დ": 914,
      "ე": 915,
      "ვ": 916,
      "ზ": 917,
      "თ": 918,
      "ი": 919,
      "კ": 920,
      "ლ": 921,
      "მ": 922,
      "ნ": 923,
      "ო": 924,
      "პ": 925,
      "რ": 926,
      "ს": 927,
      "ტ": 928,
      "უ": 929,
      "ფ": 930,
      "ქ": 931,
      "ღ": 932,
      "ყ": 933,
      "შ": 934,
      "ჩ": 935,
      "ც": 936,
      "ძ": 937,
      "წ": 938,
      "ხ": 939,
      "ჯ": 940,
      "ᵉ": 941,
      "ᵐ": 942,
      "ᵑ": 943,
      "ḍ": 944,
      "ḏ": 945,
      "ḗ": 946,
      "Ḥ": 947,
      "ḥ": 948,
      "Ḩ": 949,
      "ḩ": 950,
      "Ḫ": 951,
      "ḫ": 952,
      "Ḳ": 953,
      "ḳ": 954,
      "ḵ": 955,
      "ḷ": 956,
      "ḻ": 957,
      "ṁ": 958,
      "ṃ": 959,
      "ṅ": 960,
      "ṇ": 961,
      "ṉ": 962,
      "ṛ": 963,
      "ṟ": 964,
      "Ṣ": 965,
      "ṣ": 966,
      "Ṭ": 967,
      "ṭ": 968,
      "ṯ": 969,
      "ẓ": 970,
      "ẕ": 971,
      "ẖ": 972,
      "ạ": 973,
      "ả": 974,
      "ấ": 975,
      "ầ": 976,
      "ẩ": 977,
      "ẫ": 978,
      "ậ": 979,
      "ắ": 980,
      "ằ": 981,
      "ẵ": 982,
      "ặ": 983,
      "ẹ": 984,
      "ẻ": 985,
      "ẽ": 986,
      "ế": 987,
      "ề": 988,
      "ể": 989,
      "ễ": 990,
      "ệ": 991,
      "ỉ": 992,
      "ị": 993,
      "Ọ": 994,
      "ọ": 995,
      "ỏ": 996,
      "ố": 997,
      "ồ": 998,
      "ổ": 999,
      "ỗ": 1000,
      "ộ": 1001,
      "ớ": 1002,
      "ờ": 1003,
      "ở": 1004,
      "ợ": 1005,
      "ụ": 1006,
      "ủ": 1007,
      "ứ": 1008,
      "ừ": 1009,
      "ử": 1010,
      "ữ": 1011,
      "ự": 1012,
      "ỳ": 1013,
      "ỹ": 1014,
      "ἀ": 1015,
      "ἁ": 1016,
      "ἄ": 1017,
      "Ἀ": 1018,
      "Ἄ": 1019,
      "ἐ": 1020,
      "ἑ": 1021,
      "ἔ": 1022,
      "ἕ": 1023,
      "Ἐ": 1024,
      "Ἑ": 1025,
      "ἡ": 1026,
      "Ἡ": 1027,
      "ἰ": 1028,
      "ἱ": 1029,
      "ἴ": 1030,
      "ἶ": 1031,
      "Ἰ": 1032,
      "ὀ": 1033,
      "ὁ": 1034,
      "ὄ": 1035,
      "ὅ": 1036,
      "Ὀ": 1037,
      "ὐ": 1038,
      "ὑ": 1039,
      "ὔ": 1040,
      "ὕ": 1041,
      "ὡ": 1042,
      "ὰ": 1043,
      "ὲ": 1044,
      "ὴ": 1045,
      "ὶ": 1046,
      "ὸ": 1047,
      "ὺ": 1048,
      "ὼ": 1049,
      "ᾱ": 1050,
      "ᾶ": 1051,
      "᾽": 1052,
      "ῃ": 1053,
      "ῆ": 1054,
      "ῇ": 1055,
      "ῖ": 1056,
      "ῥ": 1057,
      "ῦ": 1058,
      "Ῥ": 1059,
      "ῳ": 1060,
      "ῶ": 1061,
      "ῷ": 1062,
      " ": 1063,
      " ": 1064,
      " ": 1065,
      " ": 1066,
      " ": 1067,
      " ": 1068,
      "‐": 1069,
      "‑": 1070,
      "‒": 1071,
      "–": 1072,
      "—": 1073,
      "―": 1074,
      "‖": 1075,
      "‘": 1076,
      "’": 1077,
      "‚": 1078,
      "“": 1079,
      "”": 1080,
      "„": 1081,
      "†": 1082,
      "‡": 1083,
      "•": 1084,
      "‥": 1085,
      "…": 1086,
      " ": 1087,
      "‰": 1088,
      "′": 1089,
      "″": 1090,
      "‹": 1091,
      "›": 1092,
      "※": 1093,
      "‼": 1094,
      "‾": 1095,
      "‿": 1096,
      "⁄": 1097,
      "⁰": 1098,
      "⁴": 1099,
      "⁵": 1100,
      "ⁿ": 1101,
      "₁": 1102,
      "₂": 1103,
      "₃": 1104,
      "₤": 1105,
      "₩": 1106,
      "€": 1107,
      "₱": 1108,
      "₹": 1109,
      "ℂ": 1110,
      "ℓ": 1111,
      "ℕ": 1112,
      "№": 1113,
      "ℚ": 1114,
      "ℝ": 1115,
      "™": 1116,
      "ℤ": 1117,
      "⅓": 1118,
      "⅔": 1119,
      "⅛": 1120,
      "←": 1121,
      "↑": 1122,
      "→": 1123,
      "↓": 1124,
      "↔": 1125,
      "↗": 1126,
      "↦": 1127,
      "↳": 1128,
      "⇄": 1129,
      "⇌": 1130,
      "⇒": 1131,
      "⇔": 1132,
      "∀": 1133,
      "∂": 1134,
      "∃": 1135,
      "∅": 1136,
      "∆": 1137,
      "∈": 1138,
      "∑": 1139,
      "−": 1140,
      "∗": 1141,
      "∘": 1142,
      "∙": 1143,
      "√": 1144,
      "∞": 1145,
      "∥": 1146,
      "∧": 1147,
      "∨": 1148,
      "∩": 1149,
      "∪": 1150,
      "∫": 1151,
      "∼": 1152,
      "≃": 1153,
      "≈": 1154,
      "≠": 1155,
      "≡": 1156,
      "≤": 1157,
      "≥": 1158,
      "⊂": 1159,
      "⊆": 1160,
      "⊕": 1161,
      "⊗": 1162,
      "⊙": 1163,
      "⊥": 1164,
      "⋅": 1165,
      "⋮": 1166,
      "⎯": 1167,
      "␝": 1168,
      "①": 1169,
      "②": 1170,
      "③": 1171,
      "─": 1172,
      "━": 1173,
      "│": 1174,
      "┊": 1175,
      "└": 1176,
      "├": 1177,
      "┤": 1178,
      "┬": 1179,
      "┴": 1180,
      "┼": 1181,
      "═": 1182,
      "║": 1183,
      "╗": 1184,
      "╚": 1185,
      "╝": 1186,
      "╲": 1187,
      "▀": 1188,
      "▄": 1189,
      "█": 1190,
      "▌": 1191,
      "░": 1192,
      "▒": 1193,
      "▓": 1194,
      "■": 1195,
      "□": 1196,
      "▪": 1197,
      "▬": 1198,
      "▲": 1199,
      "△": 1200,
      "▴": 1201,
      "▶": 1202,
      "►": 1203,
      "▼": 1204,
      "▾": 1205,
      "◀": 1206,
      "◁": 1207,
      "◄": 1208,
      "◆": 1209,
      "◇": 1210,
      "◊": 1211,
      "○": 1212,
      "◌": 1213,
      "●": 1214,
      "★": 1215,
      "☆": 1216,
      "☉": 1217,
      "♀": 1218,
      "♂": 1219,
      "♕": 1220,
      "♙": 1221,
      "♠": 1222,
      "♡": 1223,
      "♣": 1224,
      "♥": 1225,
      "♦": 1226,
      "♪": 1227,
      "♫": 1228,
      "♭": 1229,
      "♯": 1230,
      "♰": 1231,
      "⚭": 1232,
      "✓": 1233,
      "✔": 1234,
      "✗": 1235,
      "✘": 1236,
      "✝": 1237,
      "❌": 1238,
      "❚": 1239,
      "❤": 1240,
      "➖": 1241,
      "⟨": 1242,
      "⟩": 1243,
      "⟶": 1244,
      "⠀": 1245,
      "⠤": 1246,
      "⣿": 1247,
      "⥋": 1248,
      "ⲁ": 1249,
      "⺩": 1250,
      "⺼": 1251,
      "⽥": 1252,
      "　": 1253,
      "、": 1254,
      "。": 1255,
      "々": 1256,
      "〇": 1257,
      "〈": 1258,
      "〉": 1259,
      "《": 1260,
      "》": 1261,
      "「": 1262,
      "」": 1263,
      "『": 1264,
      "』": 1265,
      "【": 1266,
      "】": 1267,
      "〜": 1268,
      "・": 1269,
      "ー": 1270,
      "ꞌ": 1271,
      "ﬁ": 1272,
      "﴾": 1273,
      "﴿": 1274,
      "！": 1275,
      "％": 1276,
      "＆": 1277,
      "（": 1278,
      "）": 1279,
      "，": 1280,
      "－": 1281,
      "．": 1282,
      "／": 1283,
      "０": 1284,
      "１": 1285,
      "２": 1286,
      "３": 1287,
      "４": 1288,
      "５": 1289,
      "：": 1290,
      "；": 1291,
      "＝": 1292,
      "＞": 1293,
      "？": 1294,
      "Ａ": 1295,
      "Ｄ": 1296,
      "Ｅ": 1297,
      "Ｏ": 1298,
      "Ｓ": 1299,
      "Ｖ": 1300,
      "｜": 1301,
      "～": 1302,
      "･": 1303,
      "ﾟ": 1304,
      "￥": 1305,
      "�": 1306,
      "𝄆": 1307,
      "𝄇": 1308,
      "𝔐": 1309,
      "𝔓": 1310,
      "🏫": 1311,
      "🏴": 1312,
      "🏻": 1313,
      "🏼": 1314,
      "🏽": 1315,
      "🏾": 1316,
      "🏿": 1317,
      "👦": 1318,
      "👧": 1319,
      "👨": 1320,
      "👩": 1321,
      "💋": 1322,
      "🧑": 1323,
      "▁|": 1324,
      "▁d": 1325,
      "er": 1326,
      "es": 1327,
      "on": 1328,
      "en": 1329,
      "in": 1330,
      "an": 1331,
      "▁t": 1332,
      "▁a": 1333,
      "▁l": 1334,
      "▁s": 1335,
      "re": 1336,
      "▁p": 1337,
      "▁c": 1338,
      "is": 1339,
      "ar": 1340,
      "ti": 1341,
      "or": 1342,
      "he": 1343,
      "▁de": 1344,
      "al": 1345,
      "it": 1346,
      "ou": 1347,
      "te": 1348,
      "le": 1349,
      "▁f": 1350,
      "▁m": 1351,
      "▁S": 1352,
      "▁e": 1353,
      "as": 1354,
      "ent": 1355,
      "▁the": 1356,
      "▁C": 1357,
      "un": 1358,
      "ic": 1359,
      "qu": 1360,
      "il": 1361,
      "om": 1362,
      "ur": 1363,
      "at": 1364,
      "▁A": 1365,
      "▁o": 1366,
      "▁in": 1367,
      "tion": 1368,
      "and": 1369,
      "▁M": 1370,
      "▁b": 1371,
      "▁(": 1372,
      "▁w": 1373,
      "▁L": 1374,
      "el": 1375,
      "▁T": 1376,
      "▁n": 1377,
      "▁P": 1378,
      "ra": 1379,
      "ro": 1380,
      "▁la": 1381,
      "us": 1382,
      "ed": 1383,
      "▁B": 1384,
      "ol": 1385,
      "ch": 1386,
      "▁of": 1387,
      "ing": 1388,
      "am": 1389,
      "▁D": 1390,
      "ri": 1391,
      "▁un": 1392,
      "et": 1393,
      "os": 1394,
      "▁R": 1395,
      "▁v": 1396,
      "▁I": 1397,
      "▁h": 1398,
      "▁en": 1399,
      "est": 1400,
      "ce": 1401,
      "▁E": 1402,
      "▁and": 1403,
      "▁-": 1404,
      "▁F": 1405,
      "▁le": 1406,
      "▁G": 1407,
      "▁H": 1408,
      "em": 1409,
      "▁re": 1410,
      "▁et": 1411,
      "ad": 1412,
      "id": 1413,
      "▁qu": 1414,
      "ie": 1415,
      "la": 1416,
      "▁g": 1417,
      "ec": 1418,
      "▁N": 1419,
      "ir": 1420,
      "ta": 1421,
      "▁to": 1422,
      "▁r": 1423,
      "im": 1424,
      "ig": 1425,
      "our": 1426,
      "##": 1427,
      "▁con": 1428,
      "ers": 1429,
      "ut": 1430,
      "▁J": 1431,
      "▁à": 1432,
      "ation": 1433,
      "ant": 1434,
      "▁des": 1435,
      "ion": 1436,
      "ul": 1437,
      "ot": 1438,
      "▁par": 1439,
      "ter": 1440,
      "▁W": 1441,
      "▁é": 1442,
      "ge": 1443,
      "ans": 1444,
      "um": 1445,
      "ist": 1446,
      "▁com": 1447,
      "ac": 1448,
      "st": 1449,
      "▁du": 1450,
      "iv": 1451,
      "▁O": 1452,
      "▁est": 1453,
      "▁K": 1454,
      "▁th": 1455,
      "th": 1456,
      "▁les": 1457,
      "oc": 1458,
      "▁V": 1459,
      "ia": 1460,
      "se": 1461,
      "de": 1462,
      "op": 1463,
      "res": 1464,
      "▁for": 1465,
      "▁on": 1466,
      "if": 1467,
      "ne": 1468,
      "me": 1469,
      "▁pro": 1470,
      "ire": 1471,
      "▁au": 1472,
      "▁al": 1473,
      "ve": 1474,
      "que": 1475,
      "▁The": 1476,
      "▁U": 1477,
      "▁se": 1478,
      "ab": 1479,
      "▁j": 1480,
      "ment": 1481,
      "ine": 1482,
      "pp": 1483,
      "ub": 1484,
      "ow": 1485,
      "ag": 1486,
      "au": 1487,
      "▁an": 1488,
      "és": 1489,
      "ay": 1490,
      "end": 1491,
      "▁is": 1492,
      "ate": 1493,
      "ort": 1494,
      "▁=": 1495,
      "ue": 1496,
      "▁was": 1497,
      "▁as": 1498,
      "od": 1499,
      "▁\"": 1500,
      "ly": 1501,
      "tr": 1502,
      "ber": 1503,
      "ver": 1504,
      "og": 1505,
      "ich": 1506,
      "ci": 1507,
      "▁In": 1508,
      "ée": 1509,
      "ont": 1510,
      "▁Ch": 1511,
      "▁ch": 1512,
      "▁une": 1513,
      "li": 1514,
      "uc": 1515,
      "▁que": 1516,
      "▁ex": 1517,
      "ard": 1518,
      "ith": 1519,
      "ap": 1520,
      "),": 1521,
      "▁dé": 1522,
      "oun": 1523,
      "ess": 1524,
      "ass": 1525,
      "ain": 1526,
      "▁il": 1527,
      "▁Le": 1528,
      "▁dans": 1529,
      "▁av": 1530,
      "▁$": 1531,
      "▁fr": 1532,
      "ais": 1533,
      "ord": 1534,
      "tu": 1535,
      "▁pr": 1536,
      "les": 1537,
      "▁y": 1538,
      "to": 1539,
      "ier": 1540,
      "▁at": 1541,
      "ement": 1542,
      "ts": 1543,
      "▁be": 1544,
      "ous": 1545,
      ");": 1546,
      "ff": 1547,
      "pe": 1548,
      "ens": 1549,
      "▁{": 1550,
      "▁wh": 1551,
      "▁ar": 1552,
      "ov": 1553,
      "ere": 1554,
      "ale": 1555,
      "ted": 1556,
      "▁pour": 1557,
      "▁ne": 1558,
      "▁*": 1559,
      "▁with": 1560,
      "▁su": 1561,
      "▁ac": 1562,
      "all": 1563,
      "tic": 1564,
      "--": 1565,
      "▁by": 1566,
      "di": 1567,
      "▁pl": 1568,
      "▁sur": 1569,
      "▁La": 1570,
      "▁el": 1571,
      "pr": 1572,
      ").": 1573,
      "out": 1574,
      "ance": 1575,
      "té": 1576,
      "▁qui": 1577,
      "ore": 1578,
      "▁or": 1579,
      "ph": 1580,
      "av": 1581,
      "▁im": 1582,
      "ak": 1583,
      "▁#": 1584,
      "ill": 1585,
      "**": 1586,
      "ame": 1587,
      "ang": 1588,
      "▁An": 1589,
      "ux": 1590,
      "ond": 1591,
      "▁Mar": 1592,
      "▁di": 1593,
      "ille": 1594,
      "▁he": 1595,
      "bre": 1596,
      "tre": 1597,
      "ite": 1598,
      "iss": 1599,
      "▁ré": 1600,
      "ity": 1601,
      "▁Un": 1602,
      "▁En": 1603,
      "▁Al": 1604,
      "ér": 1605,
      "▁tr": 1606,
      "tions": 1607,
      "ong": 1608,
      "//": 1609,
      "ait": 1610,
      "▁from": 1611,
      "age": 1612,
      "ure": 1613,
      "ère": 1614,
      "ins": 1615,
      "ip": 1616,
      "▁st": 1617,
      "ib": 1618,
      "che": 1619,
      "lic": 1620,
      "ons": 1621,
      "up": 1622,
      "▁Par": 1623,
      "lo": 1624,
      "tur": 1625,
      "▁Re": 1626,
      "▁k": 1627,
      "▁it": 1628,
      "ien": 1629,
      "iz": 1630,
      "###": 1631,
      "▁comp": 1632,
      "urs": 1633,
      "ign": 1634,
      "▁that": 1635,
      "▁der": 1636,
      "▁St": 1637,
      "mp": 1638,
      "io": 1639,
      "▁Y": 1640,
      "▁Ar": 1641,
      "orm": 1642,
      "▁Fr": 1643,
      "ud": 1644,
      "ors": 1645,
      "erv": 1646,
      "▁del": 1647,
      "ian": 1648,
      "▁comm": 1649,
      "▁es": 1650,
      "ty": 1651,
      "▁}": 1652,
      "▁–": 1653,
      "..": 1654,
      "▁cl": 1655,
      "ité": 1656,
      "cl": 1657,
      "▁Th": 1658,
      "ug": 1659,
      "ence": 1660,
      "ary": 1661,
      "port": 1662,
      "amp": 1663,
      "erm": 1664,
      "▁tra": 1665,
      "▁ra": 1666,
      "ile": 1667,
      "elle": 1668,
      "igh": 1669,
      "onn": 1670,
      "lec": 1671,
      "ies": 1672,
      "ice": 1673,
      "ach": 1674,
      "iti": 1675,
      "▁De": 1676,
      "▁pe": 1677,
      "ld": 1678,
      "are": 1679,
      "ès": 1680,
      "ique": 1681,
      "▁plus": 1682,
      "▁und": 1683,
      "▁app": 1684,
      "ques": 1685,
      "ath": 1686,
      "omm": 1687,
      "▁gr": 1688,
      "▁'": 1689,
      "ke": 1690,
      "ten": 1691,
      "ell": 1692,
      "▁ou": 1693,
      "▁Il": 1694,
      "anc": 1695,
      "per": 1696,
      "rit": 1697,
      "▁son": 1698,
      "ati": 1699,
      "▁ad": 1700,
      "gh": 1701,
      "▁ent": 1702,
      "par": 1703,
      "ric": 1704,
      "ound": 1705,
      "ern": 1706,
      "ast": 1707,
      "ise": 1708,
      "én": 1709,
      "ung": 1710,
      "▁avec": 1711,
      "▁res": 1712,
      "oin": 1713,
      "▁sp": 1714,
      "ob": 1715,
      "ées": 1716,
      "mer": 1717,
      "▁He": 1718,
      "ok": 1719,
      "▁aut": 1720,
      "▁pla": 1721,
      "ient": 1722,
      "ata": 1723,
      "▁pre": 1724,
      "oy": 1725,
      "ón": 1726,
      "▁mar": 1727,
      "▁cons": 1728,
      "ann": 1729,
      "tor": 1730,
      "ish": 1731,
      "land": 1732,
      "▁ab": 1733,
      "▁Se": 1734,
      "▁«": 1735,
      "▁ce": 1736,
      "▁Z": 1737,
      "▁—": 1738,
      "ois": 1739,
      "ah": 1740,
      "▁his": 1741,
      "tem": 1742,
      "ial": 1743,
      "inal": 1744,
      "▁Q": 1745,
      "ust": 1746,
      "▁are": 1747,
      "ind": 1748,
      "ys": 1749,
      "\",": 1750,
      "ear": 1751,
      "ide": 1752,
      "aire": 1753,
      "duc": 1754,
      "▁not": 1755,
      "▁É": 1756,
      "turn": 1757,
      "▁z": 1758,
      "ck": 1759,
      "▁per": 1760,
      "▁us": 1761,
      "uss": 1762,
      "▁Ne": 1763,
      "ton": 1764,
      "ente": 1765,
      "ork": 1766,
      "▁pas": 1767,
      "ble": 1768,
      "▁pub": 1769,
      "ode": 1770,
      "ette": 1771,
      "▁te": 1772,
      "éri": 1773,
      "▁inter": 1774,
      "----": 1775,
      "▁er": 1776,
      "▁this": 1777,
      "ase": 1778,
      "▁sa": 1779,
      "able": 1780,
      "ations": 1781,
      "ated": 1782,
      "▁pos": 1783,
      "ui": 1784,
      "ouv": 1785,
      "oh": 1786,
      "▁am": 1787,
      "one": 1788,
      "iel": 1789,
      "ry": 1790,
      "▁<": 1791,
      "ix": 1792,
      "iè": 1793,
      "▁sont": 1794,
      "az": 1795,
      "ces": 1796,
      "pos": 1797,
      "tiv": 1798,
      "▁ag": 1799,
      "▁sh": 1800,
      "ress": 1801,
      "ome": 1802,
      "▁if": 1803,
      "▁It": 1804,
      "ational": 1805,
      "▁:": 1806,
      "▁dis": 1807,
      "||": 1808,
      "▁Les": 1809,
      "ction": 1810,
      "ions": 1811,
      "ré": 1812,
      "ult": 1813,
      "▁rec": 1814,
      "▁El": 1815,
      "til": 1816,
      "▁cont": 1817,
      "art": 1818,
      "uis": 1819,
      "▁col": 1820,
      "ss": 1821,
      "une": 1822,
      "emp": 1823,
      "▁return": 1824,
      "str": 1825,
      "oir": 1826,
      "▁&": 1827,
      "▁die": 1828,
      "ents": 1829,
      "▁sta": 1830,
      "->": 1831,
      "ula": 1832,
      "▁/": 1833,
      "ace": 1834,
      "ats": 1835,
      "form": 1836,
      "oup": 1837,
      "olog": 1838,
      "▁ro": 1839,
      "ma": 1840,
      "▁ob": 1841,
      "ack": 1842,
      "()": 1843,
      "▁+": 1844,
      "orn": 1845,
      "ect": 1846,
      "xt": 1847,
      "▁parti": 1848,
      "fic": 1849,
      "rib": 1850,
      "ik": 1851,
      "▁mon": 1852,
      "aux": 1853,
      "ivers": 1854,
      "ven": 1855,
      "fer": 1856,
      "▁ma": 1857,
      "▁sec": 1858,
      "old": 1859,
      "éd": 1860,
      "▁als": 1861,
      "ft": 1862,
      "▁Sh": 1863,
      "ina": 1864,
      "▁were": 1865,
      "▁Pro": 1866,
      "▁which": 1867,
      "we": 1868,
      "▁i": 1869,
      "own": 1870,
      "::": 1871,
      "▁aux": 1872,
      "irst": 1873,
      "enti": 1874,
      "omp": 1875,
      "ants": 1876,
      "▁pri": 1877,
      "▁X": 1878,
      "▁ha": 1879,
      "enn": 1880,
      "ost": 1881,
      "ild": 1882,
      "min": 1883,
      "be": 1884,
      "uit": 1885,
      "▁man": 1886,
      "▁str": 1887,
      "ture": 1888,
      "▁pol": 1889,
      "▁Gr": 1890,
      "mi": 1891,
      "▁sc": 1892,
      "use": 1893,
      "==": 1894,
      "▁car": 1895,
      "▁exp": 1896,
      "▁me": 1897,
      "▁Sch": 1898,
      "ole": 1899,
      "ition": 1900,
      "▁acc": 1901,
      "raph": 1902,
      "▁no": 1903,
      "▁ann": 1904,
      "ight": 1905,
      "▁che": 1906,
      "get": 1907,
      "▁nom": 1908,
      "vel": 1909,
      "▁has": 1910,
      "ive": 1911,
      "ime": 1912,
      "ours": 1913,
      "▁ass": 1914,
      "urop": 1915,
      "éc": 1916,
      "ock": 1917,
      "ater": 1918,
      "',": 1919,
      "▁all": 1920,
      "▁Je": 1921,
      "ool": 1922,
      "ose": 1923,
      "cc": 1924,
      "cip": 1925,
      "iste": 1926,
      "▁[": 1927,
      "ade": 1928,
      "ory": 1929,
      "▁éta": 1930,
      "sp": 1931,
      "▁Cl": 1932,
      "int": 1933,
      "▁Car": 1934,
      "ype": 1935,
      "sh": 1936,
      "ree": 1937,
      "ates": 1938,
      "▁été": 1939,
      "▁ser": 1940,
      "▁fil": 1941,
      "▁vo": 1942,
      "▁so": 1943,
      "▁entre": 1944,
      "ante": 1945,
      "ll": 1946,
      "con": 1947,
      "oth": 1948,
      "ires": 1949,
      "ank": 1950,
      "▁\\": 1951,
      "uer": 1952,
      "▁new": 1953,
      "gan": 1954,
      "▁Con": 1955,
      "und": 1956,
      "oll": 1957,
      "ales": 1958,
      "▁deux": 1959,
      "▁fin": 1960,
      "▁comme": 1961,
      "ough": 1962,
      "ail": 1963,
      "mes": 1964,
      "yn": 1965,
      "▁public": 1966,
      "eb": 1967,
      "oci": 1968,
      "wo": 1969,
      "▁New": 1970,
      "▁import": 1971,
      "▁also": 1972,
      "ato": 1973,
      "ct": 1974,
      "ég": 1975,
      "ari": 1976,
      "▁mais": 1977,
      "man": 1978,
      "▁class": 1979,
      "ges": 1980,
      "son": 1981,
      "ision": 1982,
      "ical": 1983,
      "vent": 1984,
      "▁Sp": 1985,
      "ión": 1986,
      "▁ri": 1987,
      "▁los": 1988,
      "ines": 1989,
      "▁Br": 1990,
      "ther": 1991,
      "ze": 1992,
      "▁int": 1993,
      "▁Qu": 1994,
      "▁Te": 1995,
      "▁loc": 1996,
      "▁ind": 1997,
      "In": 1998,
      "▁Be": 1999,
      "lement": 2000,
      "ener": 2001,
      "ays": 2002,
      "aint": 2003,
      "▁but": 2004,
      "▁serv": 2005,
      "▁elle": 2006,
      "▁reg": 2007,
      "tive": 2008,
      "▁u": 2009,
      "▁por": 2010,
      "▁On": 2011,
      "ick": 2012,
      "tes": 2013,
      "ger": 2014,
      "ption": 2015,
      "ris": 2016,
      "▁co": 2017,
      "▁first": 2018,
      "gl": 2019,
      "atch": 2020,
      "▁min": 2021,
      "tern": 2022,
      "ner": 2023,
      "ram": 2024,
      "emb": 2025,
      "val": 2026,
      "(\"": 2027,
      "fter": 2028,
      "outh": 2029,
      "▁ses": 2030,
      "red": 2031,
      "▁una": 2032,
      "▁Ma": 2033,
      "ward": 2034,
      "titu": 2035,
      "ograph": 2036,
      "▁had": 2037,
      "ited": 2038,
      "ings": 2039,
      "▁dif": 2040,
      "ême": 2041,
      "enc": 2042,
      "elf": 2043,
      "▁form": 2044,
      "ues": 2045,
      "▁je": 2046,
      "▁fait": 2047,
      "cri": 2048,
      "ert": 2049,
      "}$": 2050,
      "=\"": 2051,
      "II": 2052,
      "▁pers": 2053,
      "▁dire": 2054,
      "▁Col": 2055,
      "▁Joh": 2056,
      "ica": 2057,
      "▁trans": 2058,
      "ado": 2059,
      "anç": 2060,
      "▁sub": 2061,
      "lé": 2062,
      "teur": 2063,
      "▁//": 2064,
      "▁Me": 2065,
      "illa": 2066,
      "fin": 2067,
      "▁incl": 2068,
      "▁mod": 2069,
      "▁cent": 2070,
      "ull": 2071,
      "ourn": 2072,
      "als": 2073,
      "ould": 2074,
      "▁cette": 2075,
      "▁dist": 2076,
      "mo": 2077,
      "orth": 2078,
      "▁dur": 2079,
      "wn": 2080,
      "▁France": 2081,
      "ada": 2082,
      "▁Ro": 2083,
      "▁Ph": 2084,
      "alis": 2085,
      "▁her": 2086,
      "els": 2087,
      "its": 2088,
      "ident": 2089,
      "▁ph": 2090,
      "▁op": 2091,
      "être": 2092,
      "▁ter": 2093,
      "vers": 2094,
      "tain": 2095,
      "▁Or": 2096,
      "▁Ad": 2097,
      "▁ins": 2098,
      "▁von": 2099,
      "▁fam": 2100,
      "▁Ge": 2101,
      "▁_": 2102,
      "ution": 2103,
      "****": 2104,
      "près": 2105,
      "▁do": 2106,
      "rie": 2107,
      "alle": 2108,
      "▁vers": 2109,
      "ene": 2110,
      "ai": 2111,
      "▁ont": 2112,
      "ific": 2113,
      "itu": 2114,
      "▁Am": 2115,
      "▁its": 2116,
      "▁déc": 2117,
      "▁Sta": 2118,
      "▁Europ": 2119,
      "ember": 2120,
      "ied": 2121,
      "isch": 2122,
      "▁ver": 2123,
      "▁dem": 2124,
      "▁one": 2125,
      "over": 2126,
      "▁play": 2127,
      "ash": 2128,
      "att": 2129,
      "▁ein": 2130,
      "ield": 2131,
      "▁Comm": 2132,
      "cess": 2133,
      "put": 2134,
      "ames": 2135,
      "pt": 2136,
      "▁ju": 2137,
      "ature": 2138,
      "ett": 2139,
      "▁Pr": 2140,
      "ission": 2141,
      "ler": 2142,
      "eng": 2143,
      "▁pop": 2144,
      "ouse": 2145,
      "▁mo": 2146,
      "▁who": 2147,
      "▁pres": 2148,
      "ps": 2149,
      "▁tro": 2150,
      "▁grand": 2151,
      "amb": 2152,
      "▁their": 2153,
      "ptem": 2154,
      "ally": 2155,
      "▁fun": 2156,
      "vol": 2157,
      "tt": 2158,
      "hed": 2159,
      "gr": 2160,
      "▁=>": 2161,
      "oute": 2162,
      "ule": 2163,
      "▁we": 2164,
      "▁rep": 2165,
      "▁Tr": 2166,
      "▁part": 2167,
      "ane": 2168,
      "oint": 2169,
      "ize": 2170,
      "cle": 2171,
      "cto": 2172,
      "▁imp": 2173,
      "--------": 2174,
      "lin": 2175,
      "▁have": 2176,
      "▁den": 2177,
      "dition": 2178,
      "▁Sc": 2179,
      "ione": 2180,
      "ron": 2181,
      "▁prés": 2182,
      "▁John": 2183,
      "▁Bar": 2184,
      "ese": 2185,
      "▁year": 2186,
      "oot": 2187,
      "eth": 2188,
      "mar": 2189,
      "▁hist": 2190,
      "▁si": 2191,
      "▁can": 2192,
      "ration": 2193,
      "▁Ab": 2194,
      "▁work": 2195,
      "▁fe": 2196,
      "iques": 2197,
      "▁eff": 2198,
      "ves": 2199,
      "ana": 2200,
      "▁Saint": 2201,
      "▁cap": 2202,
      "rad": 2203,
      "▁Is": 2204,
      "aut": 2205,
      "▁out": 2206,
      "tique": 2207,
      "ets": 2208,
      "▁prin": 2209,
      "ball": 2210,
      "▁dev": 2211,
      "▁Univers": 2212,
      "aw": 2213,
      "▁tout": 2214,
      "ano": 2215,
      "▁val": 2216,
      "▁esp": 2217,
      "hr": 2218,
      "ures": 2219,
      "▁No": 2220,
      "▁two": 2221,
      "▁commun": 2222,
      "uary": 2223,
      "pend": 2224,
      "▁être": 2225,
      "any": 2226,
      "▁Gu": 2227,
      "ür": 2228,
      "tif": 2229,
      "der": 2230,
      "▁ép": 2231,
      "alement": 2232,
      "▁conf": 2233,
      "gen": 2234,
      "cem": 2235,
      "▁.": 2236,
      "e ": 2237,
      "▁bu": 2238,
      "va": 2239,
      "ject": 2240,
      "▁lo": 2241,
      "▁x": 2242,
      "ange": 2243,
      "ière": 2244,
      "▁Coun": 2245,
      "▁mus": 2246,
      "▁cor": 2247,
      "▁num": 2248,
      "▁orig": 2249,
      "▁inc": 2250,
      "▁id": 2251,
      "▁lui": 2252,
      "▁As": 2253,
      "▁temp": 2254,
      "lay": 2255,
      "▁même": 2256,
      "▁bec": 2257,
      "▁const": 2258,
      "ox": 2259,
      "ason": 2260,
      "arg": 2261,
      "▁prov": 2262,
      "enne": 2263,
      "oire": 2264,
      "bert": 2265,
      "ER": 2266,
      "▁leur": 2267,
      "▁non": 2268,
      "urn": 2269,
      "rent": 2270,
      "▁And": 2271,
      "tel": 2272,
      "bum": 2273,
      "▁Jul": 2274,
      "▁film": 2275,
      "onne": 2276,
      "▁produc": 2277,
      "();": 2278,
      "onc": 2279,
      "▁inf": 2280,
      "ía": 2281,
      "▁sol": 2282,
      "uch": 2283,
      "▁prof": 2284,
      "▁Amer": 2285,
      "ular": 2286,
      "▁enc": 2287,
      "▁long": 2288,
      "ased": 2289,
      "co": 2290,
      "ulation": 2291,
      "tra": 2292,
      "velop": 2293,
      "▁up": 2294,
      "▁pass": 2295,
      "ator": 2296,
      "lection": 2297,
      "ançais": 2298,
      "▁Com": 2299,
      "orld": 2300,
      "▁mil": 2301,
      "▁Mon": 2302,
      "ae": 2303,
      "ouver": 2304,
      "▁name": 2305,
      "▁Wh": 2306,
      "▁rég": 2307,
      "bl": 2308,
      "iew": 2309,
      "tement": 2310,
      "elles": 2311,
      "▁gén": 2312,
      "▁cer": 2313,
      "▁éc": 2314,
      "ince": 2315,
      "▁been": 2316,
      "lex": 2317,
      "ém": 2318,
      "tit": 2319,
      "▁las": 2320,
      "Re": 2321,
      "za": 2322,
      "ey": 2323,
      "▁;": 2324,
      "hip": 2325,
      "▁Wil": 2326,
      "^,": 2327,
      "ror": 2328,
      "rid": 2329,
      "▁était": 2330,
      "way": 2331,
      "▁emp": 2332,
      "▁Char": 2333,
      "ros": 2334,
      "▁Europe": 2335,
      "))": 2336,
      "▁spec": 2337,
      " m": 2338,
      "('": 2339,
      "mier": 2340,
      "▁tit": 2341,
      "▁Ex": 2342,
      "▁sous": 2343,
      "ument": 2344,
      "\\+": 2345,
      "oupe": 2346,
      "▁United": 2347,
      "▁@": 2348,
      "érie": 2349,
      "ament": 2350,
      "uk": 2351,
      "ara": 2352,
      "agn": 2353,
      "▁conc": 2354,
      "▁hab": 2355,
      "ars": 2356,
      "yp": 2357,
      "▁dont": 2358,
      "▁li": 2359,
      "ible": 2360,
      "km": 2361,
      "pport": 2362,
      "den": 2363,
      "cher": 2364,
      "▁bl": 2365,
      "embre": 2366,
      "ages": 2367,
      "ouve": 2368,
      "ieu": 2369,
      "▁!": 2370,
      "▁Ste": 2371,
      "ute": 2372,
      "▁Champ": 2373,
      "lor": 2374,
      "ks": 2375,
      "row": 2376,
      "▁Er": 2377,
      "▁def": 2378,
      "ood": 2379,
      "ense": 2380,
      "▁over": 2381,
      "▁second": 2382,
      "inn": 2383,
      "▁sch": 2384,
      "af": 2385,
      "ino": 2386,
      "IN": 2387,
      "▁May": 2388,
      "▁resp": 2389,
      "ussi": 2390,
      "▁Can": 2391,
      "ount": 2392,
      "ican": 2393,
      "▁after": 2394,
      "lem": 2395,
      "▁ord": 2396,
      "ym": 2397,
      "ative": 2398,
      "▁time": 2399,
      "▁Paris": 2400,
      "▁cre": 2401,
      "▁ces": 2402,
      "▁où": 2403,
      "ustr": 2404,
      "iter": 2405,
      "▁nous": 2406,
      "▁Man": 2407,
      "ister": 2408,
      "rig": 2409,
      "ON": 2410,
      "ystem": 2411,
      "ake": 2412,
      "of": 2413,
      "▁br": 2414,
      "▁art": 2415,
      "▁end": 2416,
      "▁other": 2417,
      "ily": 2418,
      "lu": 2419,
      "▁ég": 2420,
      "aul": 2421,
      "ray": 2422,
      "▁français": 2423,
      "],": 2424,
      "▁Jan": 2425,
      "▁Jean": 2426,
      "uf": 2427,
      "▁sign": 2428,
      "▁At": 2429,
      "era": 2430,
      "struc": 2431,
      "▁For": 2432,
      "▁She": 2433,
      "▁jus": 2434,
      "▁après": 2435,
      "▁occ": 2436,
      "}}": 2437,
      "▁Des": 2438,
      "by": 2439,
      "▁pré": 2440,
      "ili": 2441,
      "{\\": 2442,
      "pro": 2443,
      "ley": 2444,
      "▁Hist": 2445,
      "▁Aug": 2446,
      "rac": 2447,
      "▁she": 2448,
      "ium": 2449,
      "ook": 2450,
      "▁organ": 2451,
      "otes": 2452,
      "eter": 2453,
      "▁situ": 2454,
      "▁Reg": 2455,
      "▁fa": 2456,
      "▁San": 2457,
      "▁Ber": 2458,
      "ude": 2459,
      "▁This": 2460,
      ".,": 2461,
      "▁Cent": 2462,
      "ita": 2463,
      "▁peut": 2464,
      "igne": 2465,
      "▁Ed": 2466,
      "ES": 2467,
      "▁suc": 2468,
      "▁prop": 2469,
      "▁aff": 2470,
      "▁perm": 2471,
      "▁Nov": 2472,
      "▁Pl": 2473,
      "omb": 2474,
      "__": 2475,
      "▁char": 2476,
      "▁main": 2477,
      "▁Pol": 2478,
      "ción": 2479,
      "na": 2480,
      "▁met": 2481,
      "▁vol": 2482,
      "oss": 2483,
      "▁place": 2484,
      "▁autres": 2485,
      "nd": 2486,
      "▁bet": 2487,
      "▁aussi": 2488,
      "▁into": 2489,
      "oph": 2490,
      "ife": 2491,
      "rag": 2492,
      "ren": 2493,
      "▁US": 2494,
      "...": 2495,
      "ación": 2496,
      "▁Gre": 2497,
      "AR": 2498,
      "▁,": 2499,
      "aj": 2500,
      "lis": 2501,
      "▁dep": 2502,
      "▁Ét": 2503,
      "ki": 2504,
      "▁includ": 2505,
      "text": 2506,
      "ior": 2507,
      "Un": 2508,
      "ague": 2509,
      "▁cour": 2510,
      "▁mit": 2511,
      "▁Ver": 2512,
      "fér": 2513,
      "▁rela": 2514,
      "▁fac": 2515,
      "▁nov": 2516,
      "ional": 2517,
      "insi": 2518,
      "▁Pe": 2519,
      "▁nombre": 2520,
      "lev": 2521,
      "oul": 2522,
      "▁off": 2523,
      "tim": 2524,
      "rict": 2525,
      "ual": 2526,
      "ams": 2527,
      "▁We": 2528,
      "chn": 2529,
      "ced": 2530,
      "▁Elle": 2531,
      "▁premi": 2532,
      "ico": 2533,
      "urg": 2534,
      "ités": 2535,
      "lich": 2536,
      "▁fut": 2537,
      "▁they": 2538,
      "ements": 2539,
      "▁final": 2540,
      "vo": 2541,
      "▁stu": 2542,
      "ird": 2543,
      "jor": 2544,
      "▁med": 2545,
      "sc": 2546,
      "▁Pri": 2547,
      "▁Bl": 2548,
      "▁bien": 2549,
      "▁under": 2550,
      "▁rem": 2551,
      "▁album": 2552,
      "▁type": 2553,
      "▁cas": 2554,
      "▁Ass": 2555,
      "▁II": 2556,
      "▁princip": 2557,
      "ances": 2558,
      "aus": 2559,
      "</": 2560,
      "▁ans": 2561,
      "ret": 2562,
      "uel": 2563,
      "▁intern": 2564,
      "vi": 2565,
      "▁Har": 2566,
      "▁sim": 2567,
      "▁ét": 2568,
      "▁South": 2569,
      "antes": 2570,
      "sch": 2571,
      "ume": 2572,
      "▁mé": 2573,
      "gram": 2574,
      "▁born": 2575,
      "\".": 2576,
      "▁Sec": 2577,
      "oman": 2578,
      "ax": 2579,
      "▁National": 2580,
      "▁self": 2581,
      "alif": 2582,
      "▁University": 2583,
      "▁ge": 2584,
      "▁West": 2585,
      "▁lors": 2586,
      "ght": 2587,
      "▁trois": 2588,
      "▁da": 2589,
      "arn": 2590,
      "set": 2591,
      "▁kn": 2592,
      "unic": 2593,
      "ka": 2594,
      "▁var": 2595,
      "let": 2596,
      "▁po": 2597,
      "ating": 2598,
      "▁è": 2599,
      "▁équ": 2600,
      "inc": 2601,
      "bor": 2602,
      "▁dec": 2603,
      "▁men": 2604,
      "▁set": 2605,
      "ande": 2606,
      "▁Geor": 2607,
      "▁Her": 2608,
      "pub": 2609,
      "ury": 2610,
      "▁rés": 2611,
      "ource": 2612,
      "iment": 2613,
      "▁Pre": 2614,
      "ionn": 2615,
      "▁villa": 2616,
      "▁div": 2617,
      "▁Comp": 2618,
      "rop": 2619,
      "▁%": 2620,
      "otal": 2621,
      "▁commune": 2622,
      "▁»": 2623,
      "▁puis": 2624,
      "▁Ang": 2625,
      "air": 2626,
      "▁American": 2627,
      "▁peu": 2628,
      "▁when": 2629,
      "▁conn": 2630,
      "yl": 2631,
      "):": 2632,
      "▁repr": 2633,
      "ollow": 2634,
      "aison": 2635,
      "ider": 2636,
      "▁bas": 2637,
      "▁contin": 2638,
      "▁Ser": 2639,
      "▁politi": 2640,
      "urch": 2641,
      "▁Cor": 2642,
      "▁Mus": 2643,
      "▁Ital": 2644,
      "go": 2645,
      "hel": 2646,
      "gin": 2647,
      "irc": 2648,
      "Con": 2649,
      "▁string": 2650,
      ".$": 2651,
      "ments": 2652,
      "▁Res": 2653,
      "▁Die": 2654,
      "▁where": 2655,
      "▁contre": 2656,
      "▁nel": 2657,
      "▁rest": 2658,
      "AT": 2659,
      "ween": 2660,
      "▁env": 2661,
      "ower": 2662,
      "▁Dist": 2663,
      "▁Ac": 2664,
      "▁para": 2665,
      "▁Min": 2666,
      "▁August": 2667,
      "▁?": 2668,
      "tring": 2669,
      "pl": 2670,
      "app": 2671,
      "||||": 2672,
      "▁Ce": 2673,
      "▁poss": 2674,
      "\">": 2675,
      "},": 2676,
      "▁All": 2677,
      "▁Li": 2678,
      "omin": 2679,
      "▁Per": 2680,
      "ena": 2681,
      "▁premier": 2682,
      "▁my": 2683,
      "ences": 2684,
      "orte": 2685,
      "▁génér": 2686,
      "iver": 2687,
      "lig": 2688,
      "rier": 2689,
      "▁North": 2690,
      "▁population": 2691,
      "====": 2692,
      "▁World": 2693,
      "ott": 2694,
      "▁may": 2695,
      "▁direc": 2696,
      "▁ils": 2697,
      "_c": 2698,
      "fore": 2699,
      "ustral": 2700,
      "div": 2701,
      "▁March": 2702,
      "▁more": 2703,
      "▁ainsi": 2704,
      "▁zu": 2705,
      "▁Dav": 2706,
      "esse": 2707,
      "▁port": 2708,
      "▁vis": 2709,
      "▁found": 2710,
      "tal": 2711,
      "▁Tra": 2712,
      "ura": 2713,
      "ral": 2714,
      "agne": 2715,
      "....": 2716,
      "▁Co": 2717,
      "rol": 2718,
      "ital": 2719,
      "act": 2720,
      "ootball": 2721,
      "▁quel": 2722,
      "▁priv": 2723,
      "icht": 2724,
      "▁dro": 2725,
      "▁della": 2726,
      "▁très": 2727,
      "▁term": 2728,
      "idad": 2729,
      "▁war": 2730,
      "ex": 2731,
      "du": 2732,
      "▁States": 2733,
      "▁également": 2734,
      "ser": 2735,
      "iers": 2736,
      "▁only": 2737,
      "▁ist": 2738,
      "▁use": 2739,
      "▁fl": 2740,
      "ème": 2741,
      "overn": 2742,
      "teurs": 2743,
      "ischen": 2744,
      "men": 2745,
      "▁offic": 2746,
      "▁get": 2747,
      "jec": 2748,
      "év": 2749,
      "▁Bel": 2750,
      "ième": 2751,
      "rough": 2752,
      "Type": 2753,
      "▁sing": 2754,
      "▁sans": 2755,
      "▁arg": 2756,
      "▁there": 2757,
      "tation": 2758,
      " km": 2759,
      "▁years": 2760,
      "leg": 2761,
      "ptember": 2762,
      "des": 2763,
      "\")": 2764,
      "vier": 2765,
      "itt": 2766,
      "but": 2767,
      "▁auf": 2768,
      "iècle": 2769,
      "▁Apr": 2770,
      "▁would": 2771,
      "▁alors": 2772,
      "ald": 2773,
      "ril": 2774,
      "▁vous": 2775,
      "name": 2776,
      "▁partie": 2777,
      "▁ens": 2778,
      "▁War": 2779,
      "ères": 2780,
      "\":": 2781,
      "▁between": 2782,
      "▁fem": 2783,
      "ek": 2784,
      "ones": 2785,
      "Name": 2786,
      "▁him": 2787,
      "▁Mc": 2788,
      "▁York": 2789,
      "▁September": 2790,
      "▁donn": 2791,
      "ham": 2792,
      "▁Dem": 2793,
      "▁Mal": 2794,
      "dex": 2795,
      "▁local": 2796,
      "▁liv": 2797,
      "Pro": 2798,
      "▁*/": 2799,
      "oi": 2800,
      "▁cul": 2801,
      "▁group": 2802,
      "▁cré": 2803,
      "▁Austral": 2804,
      "ando": 2805,
      "eneral": 2806,
      "ison": 2807,
      "▁für": 2808,
      "jet": 2809,
      "ms": 2810,
      "line": 2811,
      "▁record": 2812,
      "▁champ": 2813,
      "ero": 2814,
      "lè": 2815,
      "ception": 2816,
      "▁cro": 2817,
      "éra": 2818,
      "EN": 2819,
      "▁Es": 2820,
      "▁Bro": 2821,
      "▁err": 2822,
      "ût": 2823,
      "▁Pal": 2824,
      "▁Rec": 2825,
      "mb": 2826,
      "▁Au": 2827,
      "▁cel": 2828,
      "_s": 2829,
      "▁some": 2830,
      "ople": 2831,
      "▁Willi": 2832,
      "tig": 2833,
      "ather": 2834,
      "▁util": 2835,
      "án": 2836,
      "asse": 2837,
      "▁jou": 2838,
      "▁partic": 2839,
      "lie": 2840,
      "▁cur": 2841,
      "▁national": 2842,
      "▁again": 2843,
      "▁during": 2844,
      "▁inté": 2845,
      "▁club": 2846,
      "▁Germ": 2847,
      "▁Octo": 2848,
      "OR": 2849,
      "▁Lou": 2850,
      "▁oper": 2851,
      "▁about": 2852,
      "ches": 2853,
      "********": 2854,
      "temp": 2855,
      "uv": 2856,
      "lace": 2857,
      "▁April": 2858,
      "unicip": 2859,
      "▁Ind": 2860,
      "ini": 2861,
      "ici": 2862,
      "▁personn": 2863,
      "▁void": 2864,
      "▁doc": 2865,
      "▁première": 2866,
      "▁Ag": 2867,
      "▁tour": 2868,
      "conom": 2869,
      "ices": 2870,
      "isc": 2871,
      "tag": 2872,
      "▁Total": 2873,
      "▁pu": 2874,
      "cription": 2875,
      "aine": 2876,
      "quest": 2877,
      "▁anci": 2878,
      "▁faire": 2879,
      "ocial": 2880,
      "▁Af": 2881,
      "ely": 2882,
      "endre": 2883,
      "▁November": 2884,
      "▁October": 2885,
      "▁compos": 2886,
      "▁match": 2887,
      "led": 2888,
      "ographie": 2889,
      "▁will": 2890,
      "▁follow": 2891,
      "_t": 2892,
      "ities": 2893,
      "rim": 2894,
      "▁July": 2895,
      "ink": 2896,
      "▁Sw": 2897,
      "AN": 2898,
      "▁season": 2899,
      "illet": 2900,
      "▁ren": 2901,
      "▁ed": 2902,
      "▁June": 2903,
      "▁then": 2904,
      "▁autre": 2905,
      "ader": 2906,
      "▁att": 2907,
      "aires": 2908,
      "▁function": 2909,
      "ony": 2910,
      "▁mai": 2911,
      "isation": 2912,
      "▁arch": 2913,
      "minist": 2914,
      "▁fond": 2915,
      "ave": 2916,
      "ark": 2917,
      "▁number": 2918,
      "▁three": 2919,
      "ebr": 2920,
      "▁mars": 2921,
      "Ch": 2922,
      "▁avait": 2923,
      "été": 2924,
      "▁ref": 2925,
      "tiques": 2926,
      "erc": 2927,
      "this": 2928,
      "▁used": 2929,
      "rist": 2930,
      "yd": 2931,
      "▁Russ": 2932,
      "▁elec": 2933,
      "▁depuis": 2934,
      "▁January": 2935,
      "▁dou": 2936,
      "▁==": 2937,
      "▁das": 2938,
      "off": 2939,
      "reg": 2940,
      "▁village": 2941,
      "ipe": 2942,
      "▁Mor": 2943,
      "ows": 2944,
      "atus": 2945,
      "ida": 2946,
      "▁high": 2947,
      "ics": 2948,
      "▁Dan": 2949,
      "▁team": 2950,
      "▁round": 2951,
      "part": 2952,
      "uz": 2953,
      "berg": 2954,
      "▁wur": 2955,
      "▁data": 2956,
      "▁Val": 2957,
      "arly": 2958,
      "▁Cons": 2959,
      "omen": 2960,
      "($": 2961,
      "▁Est": 2962,
      "uy": 2963,
      "ierre": 2964,
      "▁State": 2965,
      "▁Paul": 2966,
      "ran": 2967,
      "▁League": 2968,
      "▁later": 2969,
      "▁dern": 2970,
      "▁gen": 2971,
      "▁camp": 2972,
      "aient": 2973,
      "▁through": 2974,
      "dio": 2975,
      "yle": 2976,
      "▁hom": 2977,
      "▁Sal": 2978,
      "ij": 2979,
      "Id": 2980,
      "^,.$": 2981,
      "ieurs": 2982,
      "ils": 2983,
      "ause": 2984,
      "ID": 2985,
      "ved": 2986,
      "▁Pres": 2987,
      "▁Dans": 2988,
      "}{": 2989,
      "▁memb": 2990,
      "oints": 2991,
      "▁Med": 2992,
      ".\"": 2993,
      "▁Jap": 2994,
      "atur": 2995,
      "▁Brit": 2996,
      "####": 2997,
      "▁go": 2998,
      "ky": 2999,
      "ieux": 3000,
      "▁City": 3001,
      "▁jan": 3002,
      "▁most": 3003,
      "ists": 3004,
      "^{": 3005,
      "▁pays": 3006,
      "nes": 3007,
      "pon": 3008,
      "ker": 3009,
      "tical": 3010,
      "▁eng": 3011,
      "▁tous": 3012,
      "▁hum": 3013,
      "▁made": 3014,
      "▁avoir": 3015,
      "▁School": 3016,
      "_d": 3017,
      "volution": 3018,
      "▁Union": 3019,
      "▁Mich": 3020,
      "////": 3021,
      "amed": 3022,
      "▁sem": 3023,
      "ira": 3024,
      "ville": 3025,
      "▁histor": 3026,
      "key": 3027,
      "▁County": 3028,
      "ás": 3029,
      "▁Intern": 3030,
      "por": 3031,
      "▁suiv": 3032,
      "▁Party": 3033,
      "Ex": 3034,
      "isme": 3035,
      "▁inst": 3036,
      "my": 3037,
      "▁point": 3038,
      "iones": 3039,
      "cember": 3040,
      "▁juin": 3041,
      "itz": 3042,
      "och": 3043,
      "AL": 3044,
      "▁Dur": 3045,
      "▁né": 3046,
      "ptembre": 3047,
      "▁ville": 3048,
      "▁disc": 3049,
      "ène": 3050,
      "▁cin": 3051,
      "▁novembre": 3052,
      "ides": 3053,
      "ises": 3054,
      "ength": 3055,
      "▁ve": 3056,
      "aiss": 3057,
      "▁janvier": 3058,
      "▁value": 3059,
      "▁sou": 3060,
      "▁mort": 3061,
      "ét": 3062,
      "▁rele": 3063,
      "▁Febr": 3064,
      "▁program": 3065,
      "ca": 3066,
      "▁soci": 3067,
      "time": 3068,
      "ried": 3069,
      "▁desc": 3070,
      "▁Div": 3071,
      "▁cri": 3072,
      "▁known": 3073,
      "ateur": 3074,
      "ha": 3075,
      "ford": 3076,
      "▁December": 3077,
      "ario": 3078,
      "▁avant": 3079,
      "▁Che": 3080,
      "alité": 3081,
      "▁trav": 3082,
      "ola": 3083,
      "bel": 3084,
      "arm": 3085,
      "▁arri": 3086,
      "Val": 3087,
      "iet": 3088,
      "▁étu": 3089,
      "▁rev": 3090,
      "▁jusqu": 3091,
      "▁Hen": 3092,
      "omo": 3093,
      "▁Roy": 3094,
      "atre": 3095,
      "ras": 3096,
      "ête": 3097,
      "iron": 3098,
      "▁années": 3099,
      "▁mal": 3100,
      "bo": 3101,
      "ST": 3102,
      "▁Port": 3103,
      "andid": 3104,
      "▁vari": 3105,
      "▁four": 3106,
      "▁septembre": 3107,
      "ket": 3108,
      "».": 3109,
      "▁octo": 3110,
      "▁propos": 3111,
      "▁monde": 3112,
      "ido": 3113,
      "je": 3114,
      "ionship": 3115,
      "ama": 3116,
      "▁Award": 3117,
      "▁octobre": 3118,
      "▁King": 3119,
      "----------------": 3120,
      "elon": 3121,
      "entes": 3122,
      "endant": 3123,
      "▁coun": 3124,
      "ados": 3125,
      "▁gre": 3126,
      "▁fois": 3127,
      "cep": 3128,
      "▁struc": 3129,
      "▁Ré": 3130,
      "▁ess": 3131,
      "ove": 3132,
      "▁À": 3133,
      "▁arr": 3134,
      "▁Aut": 3135,
      "▁activ": 3136,
      "ush": 3137,
      "cial": 3138,
      "Res": 3139,
      "zo": 3140,
      "lished": 3141,
      "ep": 3142,
      "no": 3143,
      "▁Bi": 3144,
      "▁build": 3145,
      "▁dés": 3146,
      "_f": 3147,
      "▁mov": 3148,
      "E_": 3149,
      "▁gra": 3150,
      "odes": 3151,
      "▁log": 3152,
      "▁sé": 3153,
      "▁enf": 3154,
      "anti": 3155,
      "▁Alex": 3156,
      "_p": 3157,
      "tres": 3158,
      "»,": 3159,
      "ling": 3160,
      "duit": 3161,
      "IT": 3162,
      "▁lang": 3163,
      "▁base": 3164,
      "ault": 3165,
      "try": 3166,
      "▁États": 3167,
      "tics": 3168,
      "ander": 3169,
      "add": 3170,
      "her": 3171,
      "▁test": 3172,
      "▁temps": 3173,
      "atri": 3174,
      "▁school": 3175,
      "▁Mart": 3176,
      "▁Franc": 3177,
      "anz": 3178,
      "tains": 3179,
      "cembre": 3180,
      "▁cr": 3181,
      "▁such": 3182,
      "hor": 3183,
      "▁Sur": 3184,
      "do": 3185,
      "▁Fil": 3186,
      "areer": 3187,
      "▁service": 3188,
      "▁football": 3189,
      "uerre": 3190,
      "▁lim": 3191,
      "▁February": 3192,
      "serv": 3193,
      "▁como": 3194,
      "▁)": 3195,
      "▁supp": 3196,
      "▁avril": 3197,
      "other": 3198,
      "▁moins": 3199,
      "▁juillet": 3200,
      "▁atta": 3201,
      "▁Mil": 3202,
      "ports": 3203,
      "ista": 3204,
      "lique": 3205,
      "▁Ins": 3206,
      "▁construc": 3207,
      "essage": 3208,
      "▁encore": 3209,
      "▁became": 3210,
      "▁inform": 3211,
      "ilt": 3212,
      "▁comb": 3213,
      "▁Lab": 3214,
      "▁line": 3215,
      "▁IS": 3216,
      ".)": 3217,
      "table": 3218,
      "▁profess": 3219,
      "▁than": 3220,
      "▁sus": 3221,
      "tition": 3222,
      "▁eine": 3223,
      "▁rece": 3224,
      "▁Mont": 3225,
      "oût": 3226,
      "▁municip": 3227,
      "▁writ": 3228,
      "lack": 3229,
      "▁remp": 3230,
      "onde": 3231,
      "élé": 3232,
      "▁leurs": 3233,
      "▁lar": 3234,
      "▁:=": 3235,
      "▁</": 3236,
      "▁Cap": 3237,
      "▁vie": 3238,
      "ection": 3239,
      "ya": 3240,
      "▁donc": 3241,
      "▁total": 3242,
      "▁Lond": 3243,
      "ites": 3244,
      "fig": 3245,
      "▁back": 3246,
      "xim": 3247,
      "AC": 3248,
      "▁techn": 3249,
      "▁décembre": 3250,
      "▁Su": 3251,
      "▁év": 3252,
      "▁plan": 3253,
      "▁ext": 3254,
      "▁soit": 3255,
      "\";": 3256,
      "alla": 3257,
      "olo": 3258,
      "owe": 3259,
      "▁while": 3260,
      "e s": 3261,
      "▁bel": 3262,
      "▁Club": 3263,
      "▁state": 3264,
      "▁compr": 3265,
      "▁Bo": 3266,
      "ards": 3267,
      "ized": 3268,
      "▁being": 3269,
      "▁Eng": 3270,
      "▁run": 3271,
      "istes": 3272,
      "ery": 3273,
      "ender": 3274,
      "ots": 3275,
      "▁David": 3276,
      "fo": 3277,
      "▁nouv": 3278,
      "▁tou": 3279,
      "ains": 3280,
      "▁before": 3281,
      "▁europ": 3282,
      "ands": 3283,
      "ney": 3284,
      "alse": 3285,
      "ple": 3286,
      "uest": 3287,
      "▁aus": 3288,
      "▁vic": 3289,
      "▁ten": 3290,
      "ries": 3291,
      "amente": 3292,
      "▁Louis": 3293,
      "ourg": 3294,
      "illes": 3295,
      "ired": 3296,
      "atis": 3297,
      "▁Rich": 3298,
      "▁bre": 3299,
      "▁différ": 3300,
      "ties": 3301,
      "▁including": 3302,
      "ael": 3303,
      "com": 3304,
      "▁arm": 3305,
      "RE": 3306,
      "▁sci": 3307,
      "▁success": 3308,
      "▁août": 3309,
      "%%": 3310,
      "ribu": 3311,
      "▁After": 3312,
      "ologie": 3313,
      "ords": 3314,
      "▁Charles": 3315,
      "▁well": 3316,
      "▁inv": 3317,
      "▁Mad": 3318,
      "erson": 3319,
      "uses": 3320,
      "amment": 3321,
      "▁plusieurs": 3322,
      "aster": 3323,
      "▁wurde": 3324,
      "eder": 3325,
      "▁bar": 3326,
      "ology": 3327,
      "ived": 3328,
      "\");": 3329,
      "▁bro": 3330,
      "▁music": 3331,
      "▁dest": 3332,
      "▁original": 3333,
      "▁Pour": 3334,
      "▁Mo": 3335,
      "T_": 3336,
      "lan": 3337,
      "fe": 3338,
      "▁cal": 3339,
      "alled": 3340,
      "tier": 3341,
      "▁func": 3342,
      "▁Cette": 3343,
      "▁list": 3344,
      "▁family": 3345,
      "lim": 3346,
      "tell": 3347,
      "Ar": 3348,
      "ody": 3349,
      "work": 3350,
      "dic": 3351,
      "▁area": 3352,
      "▁former": 3353,
      "▁any": 3354,
      "▁William": 3355,
      "▁sein": 3356,
      "▁actu": 3357,
      "omas": 3358,
      "face": 3359,
      "raw": 3360,
      "▁Kar": 3361,
      "▁habit": 3362,
      "▁until": 3363,
      "▁Ben": 3364,
      "▁Op": 3365,
      "▁perform": 3366,
      "tate": 3367,
      "▁vi": 3368,
      "ache": 3369,
      "for": 3370,
      "▁Vic": 3371,
      "▁Wal": 3372,
      "}\\": 3373,
      "▁Ter": 3374,
      "lege": 3375,
      "ditions": 3376,
      "St": 3377,
      "')": 3378,
      "ethod": 3379,
      "ager": 3380,
      "ules": 3381,
      "e siècle": 3382,
      "ienne": 3383,
      "▁Robert": 3384,
      "évrier": 3385,
      "▁administ": 3386,
      "da": 3387,
      "erg": 3388,
      "En": 3389,
      "▁leg": 3390,
      "umb": 3391,
      "rain": 3392,
      "▁appar": 3393,
      "▁représ": 3394,
      "▁groupe": 3395,
      "▁nouve": 3396,
      "▁Jo": 3397,
      "public": 3398,
      "ington": 3399,
      "inals": 3400,
      "asc": 3401,
      "lete": 3402,
      "▁Chris": 3403,
      "ungen": 3404,
      "ism": 3405,
      "▁mill": 3406,
      "▁suite": 3407,
      "▁préc": 3408,
      "▁!=": 3409,
      "ellement": 3410,
      "read": 3411,
      "unction": 3412,
      "▁people": 3413,
      "cha": 3414,
      "ross": 3415,
      "uite": 3416,
      "▁bo": 3417,
      "▁Fin": 3418,
      "▁result": 3419,
      "▁mag": 3420,
      "▁ap": 3421,
      "▁pouv": 3422,
      "IC": 3423,
      "ua": 3424,
      "▁station": 3425,
      "_m": 3426,
      "tie": 3427,
      "▁design": 3428,
      "▁cours": 3429,
      "oud": 3430,
      "def": 3431,
      "yst": 3432,
      "▁mes": 3433,
      "ani": 3434,
      "rage": 3435,
      "ben": 3436,
      "▁univers": 3437,
      "▁Tur": 3438,
      "ression": 3439,
      "▁develop": 3440,
      "▁else": 3441,
      "ga": 3442,
      "col": 3443,
      "▁them": 3444,
      "▁fig": 3445,
      "▁App": 3446,
      "▁Sa": 3447,
      "▁particip": 3448,
      "AS": 3449,
      "ores": 3450,
      "▁réalis": 3451,
      "tice": 3452,
      "▁open": 3453,
      "▁Cup": 3454,
      "▁lég": 3455,
      "hal": 3456,
      "▁février": 3457,
      "rait": 3458,
      "▁appro": 3459,
      "▁null": 3460,
      "▁govern": 3461,
      "▁prote": 3462,
      "▁Mi": 3463,
      "▁refer": 3464,
      "['": 3465,
      "▁Sim": 3466,
      "▁année": 3467,
      "▁add": 3468,
      "▁sich": 3469,
      "▁six": 3470,
      "▁James": 3471,
      "nement": 3472,
      "▁played": 3473,
      "▁Sm": 3474,
      "▁Art": 3475,
      "ulti": 3476,
      "▁déf": 3477,
      "uff": 3478,
      "arch": 3479,
      "▁private": 3480,
      "pis": 3481,
      "▁circ": 3482,
      "▁Grand": 3483,
      "▁ret": 3484,
      "gg": 3485,
      "iles": 3486,
      "▁Mic": 3487,
      "▁−": 3488,
      "▁song": 3489,
      "▁Gra": 3490,
      "bles": 3491,
      "▁against": 3492,
      "▁adv": 3493,
      "ito": 3494,
      "▁mat": 3495,
      "ched": 3496,
      "Unis": 3497,
      "ationale": 3498,
      "▁Gi": 3499,
      "▁esc": 3500,
      "ération": 3501,
      "ken": 3502,
      "▁social": 3503,
      "▁ques": 3504,
      "▁due": 3505,
      "▁Av": 3506,
      "▁utilis": 3507,
      "▁Team": 3508,
      "glise": 3509,
      "ocra": 3510,
      "▁politique": 3511,
      "▁Class": 3512,
      "▁Championship": 3513,
      "iller": 3514,
      "lier": 3515,
      "▁Cal": 3516,
      "▁artic": 3517,
      "▁Der": 3518,
      "▁Ke": 3519,
      "ôle": 3520,
      "▁Pat": 3521,
      "▁territ": 3522,
      "▁Canada": 3523,
      "▁Im": 3524,
      "▁requ": 3525,
      "éric": 3526,
      "type": 3527,
      "▁High": 3528,
      "lymp": 3529,
      "▁Une": 3530,
      "ification": 3531,
      "▁FC": 3532,
      "ful": 3533,
      "▁Sam": 3534,
      "aud": 3535,
      "▁District": 3536,
      "ociation": 3537,
      "▁both": 3538,
      "▁Sup": 3539,
      "▁Park": 3540,
      "▁ang": 3541,
      "aur": 3542,
      "De": 3543,
      "▁case": 3544,
      "br": 3545,
      "▁Cour": 3546,
      "ask": 3547,
      "chen": 3548,
      "▁Son": 3549,
      "Data": 3550,
      "ba": 3551,
      "lag": 3552,
      "▁imm": 3553,
      "ility": 3554,
      "▁dom": 3555,
      "lect": 3556,
      "ora": 3557,
      "▁général": 3558,
      "ls": 3559,
      "▁Si": 3560,
      "▁won": 3561,
      "▁north": 3562,
      "emble": 3563,
      "▁First": 3564,
      "▁Japan": 3565,
      "pec": 3566,
      "▁Phil": 3567,
      "ié": 3568,
      "right": 3569,
      "▁iss": 3570,
      "▁major": 3571,
      "ety": 3572,
      "loy": 3573,
      "▁sal": 3574,
      "oma": 3575,
      "▁many": 3576,
      "▁sm": 3577,
      "▁true": 3578,
      "itions": 3579,
      "▁position": 3580,
      "String": 3581,
      "tures": 3582,
      "iff": 3583,
      "▁You": 3584,
      "▁opp": 3585,
      "ervice": 3586,
      "▁sor": 3587,
      "▁event": 3588,
      "cent": 3589,
      "iens": 3590,
      "▁gu": 3591,
      "owever": 3592,
      "lob": 3593,
      "ape": 3594,
      "▁constitu": 3595,
      "iano": 3596,
      "gn": 3597,
      "▁Et": 3598,
      "▁Air": 3599,
      "▁Hol": 3600,
      "▁Division": 3601,
      "▁did": 3602,
      "▁House": 3603,
      "ières": 3604,
      "▁Esp": 3605,
      "▁grande": 3606,
      "▁ai": 3607,
      "pond": 3608,
      "▁dévelop": 3609,
      "List": 3610,
      "▁stud": 3611,
      "▁nature": 3612,
      "▁exemp": 3613,
      "▁Fl": 3614,
      "rite": 3615,
      "▁région": 3616,
      "){": 3617,
      "▁milit": 3618,
      "erie": 3619,
      "▁initi": 3620,
      "▁Jac": 3621,
      "tian": 3622,
      "▁south": 3623,
      "ppe": 3624,
      "▁His": 3625,
      "▁Stre": 3626,
      "▁Pos": 3627,
      "▁série": 3628,
      "▁George": 3629,
      "umm": 3630,
      "itor": 3631,
      "▁ur": 3632,
      "Er": 3633,
      "▁dém": 3634,
      "▁cha": 3635,
      "ische": 3636,
      "tage": 3637,
      "ench": 3638,
      "▁star": 3639,
      "▁system": 3640,
      "▁moy": 3641,
      "▁using": 3642,
      "ius": 3643,
      "▁ev": 3644,
      "param": 3645,
      "burg": 3646,
      "▁compe": 3647,
      "Par": 3648,
      "item": 3649,
      "▁tant": 3650,
      "▁contr": 3651,
      "▁Jah": 3652,
      "ustri": 3653,
      "▁saison": 3654,
      "▁Christ": 3655,
      "ournal": 3656,
      "▁Soci": 3657,
      "rière": 3658,
      "▁Bra": 3659,
      "ona": 3660,
      "▁Ze": 3661,
      "▁Final": 3662,
      "aria": 3663,
      "field": 3664,
      "êt": 3665,
      "▁toute": 3666,
      "▁lieu": 3667,
      "▁Mac": 3668,
      "return": 3669,
      "ôt": 3670,
      "▁Cas": 3671,
      "▁cou": 3672,
      "tica": 3673,
      "lient": 3674,
      "än": 3675,
      "ester": 3676,
      "▁Trans": 3677,
      "▁>": 3678,
      "▁notamment": 3679,
      "wer": 3680,
      "irm": 3681,
      "▁Red": 3682,
      "▁international": 3683,
      "▁following": 3684,
      "▁lib": 3685,
      "oles": 3686,
      "▁Del": 3687,
      "resent": 3688,
      "ducation": 3689,
      "▁life": 3690,
      "▁International": 3691,
      "▁same": 3692,
      "▁Thomas": 3693,
      "▁own": 3694,
      "▁fer": 3695,
      "▁bes": 3696,
      "▁Bre": 3697,
      "EC": 3698,
      "IS": 3699,
      "▁tourn": 3700,
      "▁estab": 3701,
      "▁Ann": 3702,
      "▁child": 3703,
      "▁///": 3704,
      "ova": 3705,
      "utes": 3706,
      "▁town": 3707,
      "▁points": 3708,
      "AA": 3709,
      "quent": 3710,
      "▁Em": 3711,
      "▁series": 3712,
      "▁Vol": 3713,
      "▁sever": 3714,
      "▁Mais": 3715,
      "▁sup": 3716,
      "▁Mit": 3717,
      "vin": 3718,
      "▁Land": 3719,
      "▁file": 3720,
      "▁méd": 3721,
      "partement": 3722,
      "▁dép": 3723,
      "ouvent": 3724,
      "mente": 3725,
      "ency": 3726,
      "▁rapport": 3727,
      "ché": 3728,
      "▁sens": 3729,
      "ope": 3730,
      "ios": 3731,
      "▁Play": 3732,
      "▁British": 3733,
      "▁|||||": 3734,
      "cil": 3735,
      "▁fur": 3736,
      "rom": 3737,
      "duction": 3738,
      "▁Jose": 3739,
      "▁let": 3740,
      "▁coup": 3741,
      "▁nil": 3742,
      "▁lead": 3743,
      "▁présent": 3744,
      "back": 3745,
      "ality": 3746,
      "▁There": 3747,
      "▁XV": 3748,
      "▁Go": 3749,
      "▁Nor": 3750,
      "▁Gl": 3751,
      "atal": 3752,
      "yr": 3753,
      "▁static": 3754,
      "ban": 3755,
      "▁fra": 3756,
      "▁Parti": 3757,
      "ref": 3758,
      "▁Stu": 3759,
      "uments": 3760,
      "iod": 3761,
      "▁sud": 3762,
      "▁famille": 3763,
      "';": 3764,
      "▁anim": 3765,
      "ede": 3766,
      "▁ste": 3767,
      "▁Cam": 3768,
      "▁celui": 3769,
      "▁Ol": 3770,
      "ko": 3771,
      ":]": 3772,
      "▁chang": 3773,
      "vis": 3774,
      "ables": 3775,
      "ared": 3776,
      "▁super": 3777,
      "oto": 3778,
      "▁celle": 3779,
      "▁titre": 3780,
      "estiv": 3781,
      "ridge": 3782,
      "▁œ": 3783,
      "▁Second": 3784,
      "▁Cla": 3785,
      "unt": 3786,
      "Col": 3787,
      "▁Indi": 3788,
      "xe": 3789,
      "ias": 3790,
      "ago": 3791,
      "▁head": 3792,
      "▁Gar": 3793,
      "▁European": 3794,
      "über": 3795,
      "ension": 3796,
      "view": 3797,
      "▁Form": 3798,
      "ourd": 3799,
      "▁released": 3800,
      "ivid": 3801,
      "hn": 3802,
      "▁located": 3803,
      "▁site": 3804,
      "▁Nord": 3805,
      "▁},": 3806,
      "▁représent": 3807,
      "▁Pub": 3808,
      "▁pat": 3809,
      "▁Str": 3810,
      "▁nord": 3811,
      "teau": 3812,
      "▁Ob": 3813,
      "▁joue": 3814,
      "▁Vo": 3815,
      "▁péri": 3816,
      "zione": 3817,
      "class": 3818,
      "bar": 3819,
      "▁conse": 3820,
      "ommes": 3821,
      "▁abs": 3822,
      "▁Commission": 3823,
      "▁large": 3824,
      "▁gouver": 3825,
      "▁Tor": 3826,
      "▁version": 3827,
      "▁member": 3828,
      "ued": 3829,
      "cer": 3830,
      "▁Stad": 3831,
      "▁contra": 3832,
      "hi": 3833,
      "▁Ret": 3834,
      "▁tri": 3835,
      "▁production": 3836,
      "▁System": 3837,
      "var": 3838,
      "▁district": 3839,
      "▁appel": 3840,
      "▁Ath": 3841,
      "▁Dé": 3842,
      "▁quar": 3843,
      "▁now": 3844,
      "▁Fer": 3845,
      "']": 3846,
      "▁person": 3847,
      "▁cu": 3848,
      "ja": 3849,
      "▁fon": 3850,
      "▁début": 3851,
      "éro": 3852,
      "▁homme": 3853,
      "▁identi": 3854,
      "▁current": 3855,
      "▁Los": 3856,
      "▁Pierre": 3857,
      "Ad": 3858,
      "▁typ": 3859,
      "ided": 3860,
      "_id": 3861,
      "rique": 3862,
      "▁process": 3863,
      "hen": 3864,
      "bit": 3865,
      "▁Emp": 3866,
      "▁dies": 3867,
      "AM": 3868,
      "adem": 3869,
      "issement": 3870,
      "▁Ir": 3871,
      "▁text": 3872,
      "uck": 3873,
      "▁Gal": 3874,
      "ör": 3875,
      "▁partir": 3876,
      "▁these": 3877,
      "▁Sing": 3878,
      "▁My": 3879,
      "▁Michael": 3880,
      "▁held": 3881,
      "tific": 3882,
      "▁called": 3883,
      "ination": 3884,
      "▁Don": 3885,
      "endo": 3886,
      "▁mis": 3887,
      "▁individ": 3888,
      "▁single": 3889,
      "anch": 3890,
      "▁Que": 3891,
      "▁cla": 3892,
      "▁game": 3893,
      "▁Ju": 3894,
      "▁europé": 3895,
      "usion": 3896,
      "▁equ": 3897,
      "ota": 3898,
      "▁band": 3899,
      "▁each": 3900,
      "▁Du": 3901,
      "▁field": 3902,
      "ources": 3903,
      "▁consid": 3904,
      "Ob": 3905,
      "los": 3906,
      "ED": 3907,
      "oque": 3908,
      "▁dit": 3909,
      "ît": 3910,
      "▁ouv": 3911,
      "enz": 3912,
      "▁seg": 3913,
      "jours": 3914,
      "▁sie": 3915,
      "▁Arg": 3916,
      "▁III": 3917,
      "▁hold": 3918,
      "▁career": 3919,
      "▁civ": 3920,
      "▁top": 3921,
      "▁Frank": 3922,
      "▁Tit": 3923,
      "Value": 3924,
      "▁occup": 3925,
      "ün": 3926,
      "▁votes": 3927,
      "▁Marc": 3928,
      "tory": 3929,
      "▁pra": 3930,
      "aking": 3931,
      "unk": 3932,
      "▁particul": 3933,
      ":\"": 3934,
      "));": 3935,
      "earch": 3936,
      "▁quelques": 3937,
      "▁house": 3938,
      "▁équipe": 3939,
      "BN": 3940,
      "day": 3941,
      "III": 3942,
      "self": 3943,
      "▁false": 3944,
      "▁book": 3945,
      "▁River": 3946,
      "ali": 3947,
      "▁London": 3948,
      "▁Tour": 3949,
      "ET": 3950,
      "▁College": 3951,
      "▁present": 3952,
      "▁date": 3953,
      "▁gener": 3954,
      "▁Andre": 3955,
      "▁Sil": 3956,
      "quer": 3957,
      "ference": 3958,
      "▁Sem": 3959,
      "lication": 3960,
      "▁support": 3961,
      "string": 3962,
      "van": 3963,
      "atter": 3964,
      "▁Island": 3965,
      "ession": 3966,
      "▁Mer": 3967,
      "odel": 3968,
      "▁bus": 3969,
      "load": 3970,
      "fois": 3971,
      "umn": 3972,
      "UL": 3973,
      "▁city": 3974,
      "▁â": 3975,
      "▁So": 3976,
      "▁giv": 3977,
      "▁auch": 3978,
      "▁Mag": 3979,
      "cept": 3980,
      "▁Jack": 3981,
      "▁nouveau": 3982,
      "▁show": 3983,
      "▁key": 3984,
      "ends": 3985,
      "_l": 3986,
      "▁tre": 3987,
      "lections": 3988,
      "▁since": 3989,
      "▁Cont": 3990,
      "roll": 3991,
      "▁département": 3992,
      "eme": 3993,
      "till": 3994,
      "illeurs": 3995,
      "▁pendant": 3996,
      "azione": 3997,
      "itte": 3998,
      "▁Gold": 3999,
      "ala": 4000,
      "▁guerre": 4001,
      "▁Belg": 4002,
      "▁History": 4003,
      "▁several": 4004,
      "▁near": 4005,
      "ops": 4006,
      "RO": 4007,
      "▁They": 4008,
      "EL": 4009,
      "▁hand": 4010,
      "▁ligne": 4011,
      "auc": 4012,
      "▁Flor": 4013,
      "▁German": 4014,
      "Get": 4015,
      "ades": 4016,
      "▁commer": 4017,
      "istre": 4018,
      "▁relig": 4019,
      "rick": 4020,
      "▁em": 4021,
      "▁Sud": 4022,
      "▁divers": 4023,
      "▁thé": 4024,
      "▁Nav": 4025,
      "▁East": 4026,
      "▁IN": 4027,
      "▁command": 4028,
      "ttp": 4029,
      "▁Acc": 4030,
      "▁histoire": 4031,
      "uls": 4032,
      "▁pa": 4033,
      "fs": 4034,
      "To": 4035,
      "pendant": 4036,
      "rich": 4037,
      "ht": 4038,
      "========": 4039,
      "depend": 4040,
      "▁exist": 4041,
      "▁ay": 4042,
      "ige": 4043,
      "ogra": 4044,
      "ori": 4045,
      "▁table": 4046,
      "▁Dr": 4047,
      "▁syn": 4048,
      "▁action": 4049,
      "perty": 4050,
      "▁Off": 4051,
      "▁small": 4052,
      "edia": 4053,
      "▁died": 4054,
      "Cl": 4055,
      "▁um": 4056,
      "▁Arch": 4057,
      "▁Film": 4058,
      "▁gi": 4059,
      "▁Bas": 4060,
      "ungs": 4061,
      "aten": 4062,
      "dom": 4063,
      "ography": 4064,
      "AP": 4065,
      "lp": 4066,
      "▁Engl": 4067,
      "▁Bor": 4068,
      "iness": 4069,
      "ribution": 4070,
      "▁Richard": 4071,
      "▁Camp": 4072,
      "▁air": 4073,
      "▁Mel": 4074,
      "▁Lu": 4075,
      "▁cop": 4076,
      "ye": 4077,
      "gli": 4078,
      "▁Afric": 4079,
      "▁más": 4080,
      "ponse": 4081,
      "▁ven": 4082,
      "ètres": 4083,
      "alth": 4084,
      "▁early": 4085,
      "▁Republic": 4086,
      "date": 4087,
      "▁environ": 4088,
      "▁doit": 4089,
      "hab": 4090,
      "imes": 4091,
      "ela": 4092,
      "stra": 4093,
      "▁quatre": 4094,
      "▁built": 4095,
      "▁Met": 4096,
      "▁dispos": 4097,
      "▁Tro": 4098,
      "unn": 4099,
      "idd": 4100,
      "ître": 4101,
      "ml": 4102,
      "▁Ros": 4103,
      "▁jour": 4104,
      "▁Rac": 4105,
      "ended": 4106,
      "uild": 4107,
      "▁Peter": 4108,
      "▁anal": 4109,
      "oung": 4110,
      "▁Year": 4111,
      "estival": 4112,
      "▁nicht": 4113,
      "▁land": 4114,
      "▁left": 4115,
      "▁Bern": 4116,
      "▁served": 4117,
      "inter": 4118,
      "lam": 4119,
      "chi": 4120,
      "▁ke": 4121,
      "test": 4122,
      "ws": 4123,
      "▁ISBN": 4124,
      "▁To": 4125,
      "▁error": 4126,
      "idth": 4127,
      "US": 4128,
      "ext": 4129,
      "ça": 4130,
      "▁order": 4131,
      "▁down": 4132,
      "aines": 4133,
      "raft": 4134,
      "ization": 4135,
      "ION": 4136,
      "uts": 4137,
      "▁species": 4138,
      "▁Martin": 4139,
      "▁Cro": 4140,
      "▁Town": 4141,
      "▁join": 4142,
      "adre": 4143,
      "▁peti": 4144,
      "▁centre": 4145,
      "▁toutes": 4146,
      "];": 4147,
      "▁développ": 4148,
      "].": 4149,
      "▁last": 4150,
      "▁should": 4151,
      "aa": 4152,
      "▁ant": 4153,
      "urt": 4154,
      "▁train": 4155,
      "tex": 4156,
      "▁Après": 4157,
      "IL": 4158,
      "idence": 4159,
      "UR": 4160,
      "▁forme": 4161,
      "\\\\": 4162,
      "▁Rad": 4163,
      "unes": 4164,
      "▁One": 4165,
      "▁über": 4166,
      "▁English": 4167,
      "▁effec": 4168,
      "▁Black": 4169,
      "▁important": 4170,
      "oment": 4171,
      "▁old": 4172,
      "▁mer": 4173,
      "ella": 4174,
      "▁cô": 4175,
      "iro": 4176,
      "▁Nic": 4177,
      "▁along": 4178,
      "ennes": 4179,
      "▁nav": 4180,
      "▁French": 4181,
      "▁syst": 4182,
      "▁qualif": 4183,
      "arget": 4184,
      "▁Best": 4185,
      "▁ris": 4186,
      "Le": 4187,
      "▁Inter": 4188,
      "_C": 4189,
      "▁finale": 4190,
      "osp": 4191,
      "lected": 4192,
      "▁Bal": 4193,
      "▁va": 4194,
      "▁Date": 4195,
      "▁||": 4196,
      "ares": 4197,
      "▁General": 4198,
      "▁disp": 4199,
      "▁bis": 4200,
      "▁age": 4201,
      "ote": 4202,
      "▁Bay": 4203,
      "▁droit": 4204,
      "acter": 4205,
      "▁Pet": 4206,
      "encia": 4207,
      "▁nach": 4208,
      "▁Dire": 4209,
      "▁œuv": 4210,
      "anger": 4211,
      "▁named": 4212,
      "ults": 4213,
      "ship": 4214,
      "▁Ren": 4215,
      "▁Not": 4216,
      "iche": 4217,
      "▁face": 4218,
      "▁size": 4219,
      "▁Fe": 4220,
      "▁wer": 4221,
      "gress": 4222,
      "▁oppos": 4223,
      "wa": 4224,
      "▁accord": 4225,
      "taire": 4226,
      "Error": 4227,
      "ilité": 4228,
      "ised": 4229,
      "▁style": 4230,
      "▁viol": 4231,
      "▁fre": 4232,
      "tives": 4233,
      "▁Jos": 4234,
      "▁Cop": 4235,
      "▁effet": 4236,
      "isla": 4237,
      "▁Di": 4238,
      "very": 4239,
      "pre": 4240,
      "met": 4241,
      "▁elles": 4242,
      "jo": 4243,
      "▁Fre": 4244,
      "▁française": 4245,
      "▁String": 4246,
      "▁État": 4247,
      "▁Liber": 4248,
      "▁Tom": 4249,
      "elt": 4250,
      "▁real": 4251,
      "▁enti": 4252,
      "▁make": 4253,
      "▁ital": 4254,
      "▁permet": 4255,
      "▁lit": 4256,
      "ample": 4257,
      "▁come": 4258,
      "umber": 4259,
      "bra": 4260,
      "▁Jun": 4261,
      "gor": 4262,
      "gar": 4263,
      "▁tu": 4264,
      "▁Den": 4265,
      "▁dell": 4266,
      "▁squ": 4267,
      "▁Ra": 4268,
      "▁espè": 4269,
      "▁Ham": 4270,
      "▁Kh": 4271,
      "▁you": 4272,
      "An": 4273,
      "▁Phili": 4274,
      "▁differ": 4275,
      "▁étaient": 4276,
      "ented": 4277,
      "▁Spec": 4278,
      "ionnat": 4279,
      "▁consider": 4280,
      "▁title": 4281,
      "▁Australia": 4282,
      "▁Conse": 4283,
      "reate": 4284,
      "▁toujours": 4285,
      "▁Mr": 4286,
      "tient": 4287,
      "Se": 4288,
      "ima": 4289,
      "▁double": 4290,
      "quel": 4291,
      "▁autor": 4292,
      "itec": 4293,
      "▁selon": 4294,
      "▁TV": 4295,
      "useum": 4296,
      "▁emb": 4297,
      "▁culture": 4298,
      "▁Rob": 4299,
      "▁Po": 4300,
      "él": 4301,
      "pper": 4302,
      "▁company": 4303,
      "rd": 4304,
      "omet": 4305,
      "▁began": 4306,
      "tein": 4307,
      "▁Group": 4308,
      "itation": 4309,
      "▁Roman": 4310,
      "▁Mark": 4311,
      "igen": 4312,
      "▁flo": 4313,
      "▁home": 4314,
      "isse": 4315,
      "▁observ": 4316,
      "ulaire": 4317,
      "rer": 4318,
      "cho": 4319,
      "▁chez": 4320,
      "▁économ": 4321,
      "▁Hall": 4322,
      "onent": 4323,
      "▁intro": 4324,
      "▁Vir": 4325,
      "▁Street": 4326,
      "teg": 4327,
      "▁Histor": 4328,
      "▁dim": 4329,
      "erst": 4330,
      "aving": 4331,
      "▁nive": 4332,
      "itch": 4333,
      "cé": 4334,
      "▁entrepr": 4335,
      "ador": 4336,
      "▁pal": 4337,
      "▁ges": 4338,
      "begin": 4339,
      "vention": 4340,
      "tore": 4341,
      "action": 4342,
      "▁respons": 4343,
      "ioni": 4344,
      "ava": 4345,
      "▁Mat": 4346,
      "ster": 4347,
      "oli": 4348,
      "▁&&": 4349,
      "▁ni": 4350,
      "▁took": 4351,
      "▁stand": 4352,
      "▁Ur": 4353,
      "▁travail": 4354,
      "ontre": 4355,
      "late": 4356,
      "èg": 4357,
      "▁Joseph": 4358,
      "▁fonction": 4359,
      "ön": 4360,
      "clude": 4361,
      "log": 4362,
      "ector": 4363,
      "▁Cr": 4364,
      "cks": 4365,
      "ís": 4366,
      "aliforn": 4367,
      "igned": 4368,
      "▁construction": 4369,
      "▁received": 4370,
      "är": 4371,
      "▁dei": 4372,
      "auv": 4373,
      "▁mor": 4374,
      "éb": 4375,
      "▁start": 4376,
      "▁`": 4377,
      "▁cet": 4378,
      "▁Luc": 4379,
      "▁suff": 4380,
      "▁alla": 4381,
      "▁England": 4382,
      "▁Men": 4383,
      "▁building": 4384,
      "▁Road": 4385,
      "▁Dou": 4386,
      "▁Act": 4387,
      "▁west": 4388,
      "▁post": 4389,
      "▁Mos": 4390,
      "_in": 4391,
      "▁gar": 4392,
      "fl": 4393,
      "ump": 4394,
      "▁Bur": 4395,
      "▁acqu": 4396,
      "▁members": 4397,
      "oper": 4398,
      "▁document": 4399,
      "▁Olymp": 4400,
      "▁Miss": 4401,
      "▁Church": 4402,
      "erland": 4403,
      "▁cos": 4404,
      "▁based": 4405,
      "▁general": 4406,
      "▁pi": 4407,
      "▁Lig": 4408,
      "▁influ": 4409,
      "▁trouve": 4410,
      "tico": 4411,
      "cht": 4412,
      "▁red": 4413,
      "ocal": 4414,
      "▁Sen": 4415,
      "mann": 4416,
      "▁van": 4417,
      "▁turn": 4418,
      "bol": 4419,
      "aissance": 4420,
      "▁tradition": 4421,
      "liz": 4422,
      "ying": 4423,
      "cm": 4424,
      "▁Music": 4425,
      "iction": 4426,
      "▁nouvelle": 4427,
      "▁ensemble": 4428,
      "eck": 4429,
      "▁ill": 4430,
      "▁CD": 4431,
      "▁eu": 4432,
      "▁allem": 4433,
      "▁rou": 4434,
      "ulture": 4435,
      "▁By": 4436,
      "ançois": 4437,
      "order": 4438,
      "▁like": 4439,
      "▁parte": 4440,
      "data": 4441,
      "▁government": 4442,
      "▁werden": 4443,
      "****************": 4444,
      "ède": 4445,
      "▁published": 4446,
      "_S": 4447,
      "▁best": 4448,
      "labor": 4449,
      "▁proc": 4450,
      "rab": 4451,
      "ored": 4452,
      "ually": 4453,
      "};": 4454,
      "▁diffic": 4455,
      "head": 4456,
      "▁win": 4457,
      "ono": 4458,
      "▁Ces": 4459,
      "agement": 4460,
      "iger": 4461,
      "▁bei": 4462,
      "▁period": 4463,
      "▁devient": 4464,
      "▁tard": 4465,
      "iled": 4466,
      "rée": 4467,
      "▁deb": 4468,
      "▁km": 4469,
      "▁nos": 4470,
      "attle": 4471,
      "èle": 4472,
      "▁read": 4473,
      "▁describ": 4474,
      "▁uns": 4475,
      "▁Sci": 4476,
      "▁could": 4477,
      "▁caus": 4478,
      "▁rapp": 4479,
      "▁dass": 4480,
      "▁Kn": 4481,
      "▁President": 4482,
      "');": 4483,
      "wards": 4484,
      "▁Cer": 4485,
      "▁agric": 4486,
      "function": 4487,
      "▁Sol": 4488,
      "▁Royal": 4489,
      "▁Victor": 4490,
      "▁exper": 4491,
      "▁stat": 4492,
      "▁publi": 4493,
      "▁ship": 4494,
      "▁within": 4495,
      "vious": 4496,
      "▁zur": 4497,
      "ummer": 4498,
      "▁fue": 4499,
      "BC": 4500,
      "▁multi": 4501,
      "▁sav": 4502,
      "▁appear": 4503,
      "▁norm": 4504,
      "▁Francis": 4505,
      "▁Bill": 4506,
      "▁services": 4507,
      "vert": 4508,
      "▁origin": 4509,
      "▁Anton": 4510,
      "▁Turn": 4511,
      "wood": 4512,
      "orted": 4513,
      "RA": 4514,
      "▁moment": 4515,
      "▁Bos": 4516,
      "ideo": 4517,
      "ought": 4518,
      "▁voy": 4519,
      "▁Californ": 4520,
      "])": 4521,
      "anche": 4522,
      "▁ ": 4523,
      "▁century": 4524,
      "ief": 4525,
      "tien": 4526,
      "▁Angel": 4527,
      "▁List": 4528,
      " k": 4529,
      "termin": 4530,
      "▁télé": 4531,
      "pi": 4532,
      "▁Hel": 4533,
      "▁compte": 4534,
      "olf": 4535,
      "ives": 4536,
      "ected": 4537,
      "lish": 4538,
      "▁XI": 4539,
      "▁vot": 4540,
      "▁poli": 4541,
      "▁hui": 4542,
      "UT": 4543,
      "idae": 4544,
      "▁espec": 4545,
      "▁question": 4546,
      "▁cat": 4547,
      "▁Gen": 4548,
      "▁article": 4549,
      "▁world": 4550,
      "▁écrit": 4551,
      "▁much": 4552,
      "(),": 4553,
      "▁route": 4554,
      "▁Arm": 4555,
      "▁épis": 4556,
      "quement": 4557,
      "iner": 4558,
      "▁Mur": 4559,
      "().": 4560,
      "alls": 4561,
      "▁Allem": 4562,
      "ict": 4563,
      "ño": 4564,
      "▁fils": 4565,
      "west": 4566,
      "org": 4567,
      "▁nomm": 4568,
      "▁Exp": 4569,
      "▁election": 4570,
      "oires": 4571,
      "▁Prov": 4572,
      "▁Mary": 4573,
      "ità": 4574,
      "▁sl": 4575,
      "▁Mex": 4576,
      "▁reti": 4577,
      "uve": 4578,
      "jourd": 4579,
      "▁produit": 4580,
      "uen": 4581,
      "ji": 4582,
      "▁Ha": 4583,
      "((": 4584,
      "▁phys": 4585,
      "▁rend": 4586,
      "▁Council": 4587,
      "########": 4588,
      "▁constr": 4589,
      "▁chap": 4590,
      "▁conserv": 4591,
      "++": 4592,
      "uage": 4593,
      "value": 4594,
      "▁because": 4595,
      "▁include": 4596,
      "▁larg": 4597,
      "▁origine": 4598,
      "▁exemple": 4599,
      "▁dess": 4600,
      "▁Lib": 4601,
      "sy": 4602,
      "////////": 4603,
      "▁Tre": 4604,
      "▁Sl": 4605,
      "▁player": 4606,
      "▁mondi": 4607,
      "▁hat": 4608,
      "▁cy": 4609,
      "lle": 4610,
      "▁Rh": 4611,
      "crit": 4612,
      "▁nationale": 4613,
      "▁Sar": 4614,
      "lit": 4615,
      "▁fav": 4616,
      "iné": 4617,
      "Cont": 4618,
      "▁need": 4619,
      "▁Conserv": 4620,
      "▁);": 4621,
      "▁Marie": 4622,
      "▁around": 4623,
      "▁dernier": 4624,
      "ipp": 4625,
      "▁travers": 4626,
      "▁era": 4627,
      "titution": 4628,
      "▁Quar": 4629,
      "▁help": 4630,
      "▁étant": 4631,
      "▁Association": 4632,
      "▁près": 4633,
      "▁souvent": 4634,
      "enant": 4635,
      "Comp": 4636,
      "▁short": 4637,
      "Object": 4638,
      "▁auc": 4639,
      "▁vor": 4640,
      "▁ceux": 4641,
      "iana": 4642,
      "':": 4643,
      "▁prob": 4644,
      "isé": 4645,
      "▁époque": 4646,
      "gio": 4647,
      "âteau": 4648,
      "▁pouvoir": 4649,
      "[]": 4650,
      "▁sera": 4651,
      "ground": 4652,
      "FA": 4653,
      "▁next": 4654,
      "▁amb": 4655,
      "athol": 4656,
      "▁Candid": 4657,
      "▁eau": 4658,
      "partment": 4659,
      "▁Dis": 4660,
      "anda": 4661,
      "sten": 4662,
      "tto": 4663,
      "▁roi": 4664,
      "tifs": 4665,
      "aille": 4666,
      "ín": 4667,
      "▁Center": 4668,
      "▁ISBN ": 4669,
      "▁réc": 4670,
      "hl": 4671,
      "MP": 4672,
      "▁Henry": 4673,
      "OL": 4674,
      "........": 4675,
      "ogn": 4676,
      "lav": 4677,
      "_b": 4678,
      "▁améric": 4679,
      "▁Green": 4680,
      "▁corres": 4681,
      "▁rap": 4682,
      "▁éd": 4683,
      "▁propri": 4684,
      "qué": 4685,
      "▁mot": 4686,
      "erve": 4687,
      "▁Lo": 4688,
      "▁very": 4689,
      "tural": 4690,
      "▁viv": 4691,
      "▁ayant": 4692,
      "▁sett": 4693,
      "▁là": 4694,
      "▁recher": 4695,
      "▁possible": 4696,
      "▁lat": 4697,
      "ambi": 4698,
      "▁Ly": 4699,
      "ware": 4700,
      "▁Sk": 4701,
      "ilia": 4702,
      "▁bi": 4703,
      "▁sold": 4704,
      "include": 4705,
      "▁mois": 4706,
      "èrent": 4707,
      "zi": 4708,
      "▁rôle": 4709,
      "lais": 4710,
      "▁chaque": 4711,
      "DE": 4712,
      "▁Ges": 4713,
      "▁Top": 4714,
      "▁anti": 4715,
      "})": 4716,
      "▁level": 4717,
      "mon": 4718,
      "hold": 4719,
      "ummary": 4720,
      "▁Prof": 4721,
      "▁tex": 4722,
      "Mar": 4723,
      "▁Sub": 4724,
      "▁Pers": 4725,
      "▁Get": 4726,
      "eld": 4727,
      "▁deven": 4728,
      "▁grad": 4729,
      "▁day": 4730,
      "ids": 4731,
      "rice": 4732,
      "▁aur": 4733,
      "▁However": 4734,
      "ift": 4735,
      "▁Cong": 4736,
      "▁reste": 4737,
      "jà": 4738,
      "▁[]": 4739,
      "▁prom": 4740,
      "_P": 4741,
      "ät": 4742,
      "▁établ": 4743,
      "▁diff": 4744,
      "▁adop": 4745,
      "▁print": 4746,
      "▁équip": 4747,
      "▁($": 4748,
      "▁journal": 4749,
      "unc": 4750,
      "▁Hill": 4751,
      "▁Coupe": 4752,
      "▁Os": 4753,
      "_n": 4754,
      "atures": 4755,
      "▁Tri": 4756,
      "▁einer": 4757,
      "ering": 4758,
      "▁Van": 4759,
      "▁faut": 4760,
      "▁remain": 4761,
      "▁addition": 4762,
      "▁gouvernement": 4763,
      "uto": 4764,
      "▁candid": 4765,
      "▁pot": 4766,
      "▁Awards": 4767,
      "▁DE": 4768,
      "▁niveau": 4769,
      "mit": 4770,
      "▁control": 4771,
      "▁Time": 4772,
      "▁sw": 4773,
      "etwork": 4774,
      "ende": 4775,
      "▁employ": 4776,
      "crip": 4777,
      "▁death": 4778,
      "upp": 4779,
      "▁std": 4780,
      "etz": 4781,
      "▁With": 4782,
      "▁Non": 4783,
      "td": 4784,
      "atz": 4785,
      "ished": 4786,
      "ocia": 4787,
      "▁voir": 4788,
      "bs": 4789,
      "▁Pays": 4790,
      "thers": 4791,
      "onom": 4792,
      "èmes": 4793,
      "Tr": 4794,
      "ential": 4795,
      "èse": 4796,
      "▁China": 4797,
      "▁Prix": 4798,
      "▁Ein": 4799,
      "▁expos": 4800,
      "▁cond": 4801,
      " s": 4802,
      "▁Bri": 4803,
      "▁sind": 4804,
      "▁î": 4805,
      "ún": 4806,
      "idi": 4807,
      "▁ça": 4808,
      "uta": 4809,
      "adas": 4810,
      "▁ir": 4811,
      "▁children": 4812,
      "▁administra": 4813,
      "▁Smith": 4814,
      "▁hal": 4815,
      "▁insp": 4816,
      "▁impos": 4817,
      "▁période": 4818,
      "oni": 4819,
      "▁Scott": 4820,
      "▁ancien": 4821,
      "▁third": 4822,
      "▁division": 4823,
      "▁phot": 4824,
      "▁model": 4825,
      "asion": 4826,
      "▁accomp": 4827,
      "aucoup": 4828,
      "▁zum": 4829,
      "▁concern": 4830,
      "▁Major": 4831,
      "▁néc": 4832,
      "▁Pop": 4833,
      "équ": 4834,
      "▁siè": 4835,
      "▁trop": 4836,
      "▁Sie": 4837,
      "▁trava": 4838,
      "usse": 4839,
      "▁église": 4840,
      "▁Das": 4841,
      "âtre": 4842,
      "▁defin": 4843,
      "▁jours": 4844,
      "▁find": 4845,
      "▁Leg": 4846,
      "▁Wash": 4847,
      "roy": 4848,
      "aise": 4849,
      "cipe": 4850,
      "ness": 4851,
      "▁represent": 4852,
      "▁Tex": 4853,
      "▁stre": 4854,
      "▁XX": 4855,
      "▁deuxième": 4856,
      "▁Christian": 4857,
      "&&": 4858,
      "▁given": 4859,
      "▁Temp": 4860,
      "▁Fam": 4861,
      "▁From": 4862,
      "▁fort": 4863,
      "▁history": 4864,
      "▁/**": 4865,
      "▁hon": 4866,
      "▁five": 4867,
      "▁retr": 4868,
      "▁must": 4869,
      "eta": 4870,
      "cs": 4871,
      "onia": 4872,
      "▁source": 4873,
      "acté": 4874,
      "▁Premier": 4875,
      "▁ci": 4876,
      "▁chef": 4877,
      "éli": 4878,
      "▁Daniel": 4879,
      "▁wir": 4880,
      "▁via": 4881,
      "▁ordre": 4882,
      "▁author": 4883,
      "uth": 4884,
      "▁information": 4885,
      "▁ensuite": 4886,
      "apt": 4887,
      "▁peuvent": 4888,
      "▁dr": 4889,
      "tro": 4890,
      "▁meille": 4891,
      "lobal": 4892,
      "▁déjà": 4893,
      "▁Super": 4894,
      "▁extra": 4895,
      "atique": 4896,
      "▁Ils": 4897,
      "▁included": 4898,
      "▁Bou": 4899,
      " M": 4900,
      "▁mise": 4901,
      "▁prim": 4902,
      "▁membres": 4903,
      "▁sort": 4904,
      "Info": 4905,
      "▁pap": 4906,
      "▁AS": 4907,
      "▁Carol": 4908,
      "isted": 4909,
      "://": 4910,
      "▁cens": 4911,
      "▁side": 4912,
      "▁Long": 4913,
      "gu": 4914,
      "sur": 4915,
      "▁law": 4916,
      "comm": 4917,
      "▁spe": 4918,
      "▁Ger": 4919,
      "▁vit": 4920,
      "Set": 4921,
      "▁Open": 4922,
      "▁break": 4923,
      "ète": 4924,
      "hm": 4925,
      "ecu": 4926,
      "▁rue": 4927,
      "alk": 4928,
      "▁count": 4929,
      "astern": 4930,
      "pisode": 4931,
      "auf": 4932,
      "▁correspond": 4933,
      "otte": 4934,
      "seau": 4935,
      "▁Racing": 4936,
      "iento": 4937,
      "ocation": 4938,
      "▁reç": 4939,
      "gi": 4940,
      "lain": 4941,
      "anci": 4942,
      "▁notre": 4943,
      "anton": 4944,
      "▁kil": 4945,
      "▁Ev": 4946,
      "ural": 4947,
      "▁promo": 4948,
      "Tok": 4949,
      "reek": 4950,
      "▁Vers": 4951,
      "RI": 4952,
      "▁Mass": 4953,
      "less": 4954,
      "▁éch": 4955,
      "▁Germany": 4956,
      "▁reconn": 4957,
      "▁objec": 4958,
      "tention": 4959,
      "liament": 4960,
      "sub": 4961,
      "▁trib": 4962,
      "ston": 4963,
      "▁Out": 4964,
      "▁path": 4965,
      "ho": 4966,
      "▁Mod": 4967,
      "AD": 4968,
      "CH": 4969,
      "▁Michel": 4970,
      "OS": 4971,
      "aute": 4972,
      "▁argent": 4973,
      "ateurs": 4974,
      "rame": 4975,
      "▁Centre": 4976,
      "OT": 4977,
      "▁Imp": 4978,
      "ights": 4979,
      "▁aujourd": 4980,
      "Request": 4981,
      "▁those": 4982,
      "▁mi": 4983,
      "uro": 4984,
      "▁method": 4985,
      "▁church": 4986,
      "▁During": 4987,
      "▁Rock": 4988,
      "▁Win": 4989,
      "▁wird": 4990,
      "ittle": 4991,
      "▁quand": 4992,
      "▁Berlin": 4993,
      "▁fu": 4994,
      "cy": 4995,
      " p": 4996,
      "▁Histoire": 4997,
      "kn": 4998,
      "idé": 4999,
      "▁Name": 5000,
      "▁water": 5001,
      "Key": 5002,
      ",\"": 5003,
      "▁right": 5004,
      "▁Pa": 5005,
      "▁Company": 5006,
      "isión": 5007,
      "▁“": 5008,
      "▁fais": 5009,
      "▁Love": 5010,
      "▁Bul": 5011,
      "▁seu": 5012,
      "▁dat": 5013,
      "▁Lic": 5014,
      "akes": 5015,
      "iten": 5016,
      "auté": 5017,
      "Add": 5018,
      "Item": 5019,
      "rieur": 5020,
      "ocratic": 5021,
      "mond": 5022,
      "▁IV": 5023,
      "▁spé": 5024,
      "▁sent": 5025,
      "▁exc": 5026,
      "▁nécess": 5027,
      "▁Women": 5028,
      "▁what": 5029,
      "ami": 5030,
      "reich": 5031,
      "éré": 5032,
      "augh": 5033,
      "bi": 5034,
      "▁conv": 5035,
      "▁When": 5036,
      "▁communes": 5037,
      "▁Washington": 5038,
      "heim": 5039,
      "▁beaucoup": 5040,
      ",-": 5041,
      "ria": 5042,
      "▁just": 5043,
      "▁président": 5044,
      "Time": 5045,
      "inning": 5046,
      "▁still": 5047,
      "▁Allemagne": 5048,
      "iene": 5049,
      "▁etc": 5050,
      "▁hor": 5051,
      "▁hommes": 5052,
      "▁guit": 5053,
      "new": 5054,
      "FF": 5055,
      "▁clim": 5056,
      "▁q": 5057,
      "jets": 5058,
      "ischer": 5059,
      "oo": 5060,
      "▁Central": 5061,
      "▁women": 5062,
      "▁Biographie": 5063,
      "dependent": 5064,
      "▁clos": 5065,
      "▁advance": 5066,
      "▁code": 5067,
      "▁Argent": 5068,
      "▁Day": 5069,
      "▁human": 5070,
      "wick": 5071,
      "▁corps": 5072,
      "▁succ": 5073,
      "ious": 5074,
      "▁père": 5075,
      "amm": 5076,
      "onse": 5077,
      "œur": 5078,
      "▁font": 5079,
      "▁cit": 5080,
      "▁direction": 5081,
      "dre": 5082,
      "▁White": 5083,
      "▁Ak": 5084,
      "AB": 5085,
      "osa": 5086,
      "▁phil": 5087,
      "hib": 5088,
      "▁Did": 5089,
      "▁Govern": 5090,
      "▁incre": 5091,
      "▁personnes": 5092,
      "Ne": 5093,
      "▁Rom": 5094,
      "▁California": 5095,
      "▁Pan": 5096,
      "▁user": 5097,
      "Gr": 5098,
      "▁certain": 5099,
      "▁moved": 5100,
      "▁système": 5101,
      "▁nella": 5102,
      "icy": 5103,
      "math": 5104,
      "una": 5105,
      "▁mass": 5106,
      "gré": 5107,
      "sk": 5108,
      "▁prix": 5109,
      "print": 5110,
      "▁But": 5111,
      "▁Rou": 5112,
      "▁simil": 5113,
      "erne": 5114,
      "▁view": 5115,
      "▁durch": 5116,
      "▁power": 5117,
      "vey": 5118,
      "\",\"": 5119,
      "▁François": 5120,
      "▁Henri": 5121,
      "▁située": 5122,
      "▁•": 5123,
      "▁Records": 5124,
      "▁enter": 5125,
      "enci": 5126,
      "▁Ap": 5127,
      "▁Star": 5128,
      "▁relations": 5129,
      "▁Italie": 5130,
      "▁état": 5131,
      "▁raison": 5132,
      "user": 5133,
      "isp": 5134,
      "▁Tim": 5135,
      "▁lie": 5136,
      "▁another": 5137,
      "▁said": 5138,
      "▁Festival": 5139,
      "▁names": 5140,
      "▁India": 5141,
      "rest": 5142,
      "▁studi": 5143,
      "ii": 5144,
      "▁Squ": 5145,
      "label": 5146,
      "pace": 5147,
      "▁ailleurs": 5148,
      "hy": 5149,
      "He": 5150,
      "▁voit": 5151,
      "quelle": 5152,
      "▁roman": 5153,
      "ahl": 5154,
      "bour": 5155,
      "▁jeu": 5156,
      "▁Rés": 5157,
      "▁Aus": 5158,
      "blic": 5159,
      "▁société": 5160,
      "zen": 5161,
      "▁sobre": 5162,
      "▁cause": 5163,
      "cul": 5164,
      "▁bâ": 5165,
      "▁Law": 5166,
      "▁cinq": 5167,
      "▁Test": 5168,
      "sen": 5169,
      "▁„": 5170,
      "▁Cast": 5171,
      "▁pay": 5172,
      "ng": 5173,
      "▁Por": 5174,
      "▁porte": 5175,
      "▁previous": 5176,
      "rog": 5177,
      "ww": 5178,
      "▁modern": 5179,
      "gory": 5180,
      "ić": 5181,
      "▁sym": 5182,
      "amento": 5183,
      "clus": 5184,
      "▁enfants": 5185,
      "▁different": 5186,
      "▁Lang": 5187,
      "iddle": 5188,
      "▁afin": 5189,
      "cia": 5190,
      "▁Gall": 5191,
      "▁beg": 5192,
      "ultats": 5193,
      "▁America": 5194,
      "oche": 5195,
      "%%%%": 5196,
      "ackage": 5197,
      "▁entra": 5198,
      "même": 5199,
      "▁Jim": 5200,
      "▁call": 5201,
      "▁femme": 5202,
      "▁bass": 5203,
      "File": 5204,
      "▁Ok": 5205,
      "ambién": 5206,
      "iser": 5207,
      "ibli": 5208,
      "▁Ho": 5209,
      "▁Maria": 5210,
      "cont": 5211,
      "▁Rep": 5212,
      "▁rom": 5213,
      "embl": 5214,
      "▁Lake": 5215,
      "urrent": 5216,
      "▁brit": 5217,
      "rale": 5218,
      "çon": 5219,
      "▁Az": 5220,
      "▁bon": 5221,
      "%)": 5222,
      "▁Army": 5223,
      "▁Ba": 5224,
      "este": 5225,
      "olas": 5226,
      "▁ém": 5227,
      "▁nombreux": 5228,
      "State": 5229,
      "▁country": 5230,
      "▁Stadium": 5231,
      "▁particular": 5232,
      "▁prend": 5233,
      "titute": 5234,
      "▁Kir": 5235,
      "bf": 5236,
      "->{": 5237,
      ".-": 5238,
      "▁access": 5239,
      "▁Votes": 5240,
      "▁business": 5241,
      "▁laquelle": 5242,
      "ribute": 5243,
      "▁indic": 5244,
      "By": 5245,
      "finals": 5246,
      "xf": 5247,
      "tir": 5248,
      "▁section": 5249,
      "▁element": 5250,
      "ologique": 5251,
      "leur": 5252,
      "levision": 5253,
      "▁loi": 5254,
      "▁Museum": 5255,
      "▁even": 5256,
      "▁cle": 5257,
      "▁Nel": 5258,
      "▁Rome": 5259,
      "war": 5260,
      "▁led": 5261,
      "aterial": 5262,
      "▁Academ": 5263,
      "▁Jacques": 5264,
      "▁dam": 5265,
      "MS": 5266,
      "▁dal": 5267,
      "▁USA": 5268,
      "oit": 5269,
      "▁Bob": 5270,
      "atta": 5271,
      "▁Feder": 5272,
      "Op": 5273,
      "▁Fred": 5274,
      "▁award": 5275,
      "▁Round": 5276,
      "▁Mot": 5277,
      "());": 5278,
      "▁respec": 5279,
      "ified": 5280,
      "▁PS": 5281,
      "▁bool": 5282,
      "▁Cre": 5283,
      "▁bou": 5284,
      "though": 5285,
      "añ": 5286,
      "bur": 5287,
      "▁allow": 5288,
      "▁force": 5289,
      "▁ress": 5290,
      "▁Lee": 5291,
      "ühr": 5292,
      "zy": 5293,
      "▁défin": 5294,
      "▁$\\": 5295,
      "▁ense": 5296,
      "▁pens": 5297,
      "▁Rod": 5298,
      "▁architec": 5299,
      "▁mouv": 5300,
      "osoph": 5301,
      "▁every": 5302,
      "lation": 5303,
      "▁comple": 5304,
      "▁MF": 5305,
      "uent": 5306,
      "▁act": 5307,
      "bon": 5308,
      "ellow": 5309,
      "▁If": 5310,
      "board": 5311,
      "rov": 5312,
      "▁Sant": 5313,
      "_name": 5314,
      "▁dos": 5315,
      "aker": 5316,
      "Code": 5317,
      "▁Turnout": 5318,
      "▁fund": 5319,
      "ograf": 5320,
      "Sh": 5321,
      "▁Ray": 5322,
      "AG": 5323,
      "▁Lors": 5324,
      "▁vra": 5325,
      "rat": 5326,
      "▁↑": 5327,
      "amin": 5328,
      "▁special": 5329,
      "▁principal": 5330,
      "LE": 5331,
      "uns": 5332,
      "▁este": 5333,
      "▁colon": 5334,
      "Fr": 5335,
      "▁supérie": 5336,
      "▁proble": 5337,
      "tura": 5338,
      "▁uint": 5339,
      "▁jam": 5340,
      "define": 5341,
      "▁décl": 5342,
      "▁sin": 5343,
      "yer": 5344,
      "UN": 5345,
      "▁étr": 5346,
      "han": 5347,
      "ila": 5348,
      "▁élé": 5349,
      "▁Kingdom": 5350,
      "enden": 5351,
      "▁règ": 5352,
      "▁certains": 5353,
      "emor": 5354,
      "▁vir": 5355,
      "▁habitants": 5356,
      "verage": 5357,
      "▁sk": 5358,
      "▁Do": 5359,
      "▁obten": 5360,
      "▁agit": 5361,
      "▁Fort": 5362,
      "cast": 5363,
      "▁created": 5364,
      "▁assist": 5365,
      "lia": 5366,
      "▁Nous": 5367,
      "▁él": 5368,
      "annel": 5369,
      "\"\"": 5370,
      "rc": 5371,
      "▁direct": 5372,
      "win": 5373,
      "▁image": 5374,
      "▁Public": 5375,
      "chaft": 5376,
      "istan": 5377,
      " mm": 5378,
      "../": 5379,
      "oro": 5380,
      "toire": 5381,
      "sta": 5382,
      "▁franc": 5383,
      "Config": 5384,
      "ival": 5385,
      "▁Ram": 5386,
      "▁province": 5387,
      "▁official": 5388,
      "itive": 5389,
      "▁Id": 5390,
      "▁range": 5391,
      "wh": 5392,
      "▁delle": 5393,
      "▁seulement": 5394,
      "ustom": 5395,
      "▁role": 5396,
      "▁rail": 5397,
      "titude": 5398,
      "opp": 5399,
      "bes": 5400,
      "atives": 5401,
      "▁Up": 5402,
      "▁default": 5403,
      "▁Dar": 5404,
      "aciones": 5405,
      "▁Virgin": 5406,
      "abri": 5407,
      "▁object": 5408,
      "fol": 5409,
      "▁common": 5410,
      "▁abord": 5411,
      "Context": 5412,
      "▁Great": 5413,
      "▁projet": 5414,
      "▁community": 5415,
      "well": 5416,
      "▁structure": 5417,
      "▁Fern": 5418,
      "né": 5419,
      "▁CO": 5420,
      "▁armée": 5421,
      "abe": 5422,
      "_T": 5423,
      "▁indi": 5424,
      "▁ple": 5425,
      "link": 5426,
      "actéris": 5427,
      "▁Dec": 5428,
      "▁Jahr": 5429,
      "ouss": 5430,
      "▁cela": 5431,
      "▁œuvre": 5432,
      "ulp": 5433,
      "orie": 5434,
      "▁UK": 5435,
      "▁Democratic": 5436,
      " P": 5437,
      "={": 5438,
      "▁father": 5439,
      "▁Canad": 5440,
      "--------------------------------": 5441,
      "allen": 5442,
      "▁ach": 5443,
      "▁développement": 5444,
      "rup": 5445,
      "▁eux": 5446,
      "mt": 5447,
      "ately": 5448,
      "ological": 5449,
      "▁Australian": 5450,
      "er ": 5451,
      "orf": 5452,
      "hand": 5453,
      "publique": 5454,
      "▁déb": 5455,
      "PY": 5456,
      "▁Direc": 5457,
      "Service": 5458,
      "▁dès": 5459,
      "▁Georg": 5460,
      "▁take": 5461,
      " mi": 5462,
      "▁month": 5463,
      "CO": 5464,
      "rir": 5465,
      "▁|||": 5466,
      "ibles": 5467,
      "▁piè": 5468,
      "▁estim": 5469,
      "▁Rog": 5470,
      "▁engine": 5471,
      "▁territoire": 5472,
      "▁mention": 5473,
      "tet": 5474,
      "▁Rel": 5475,
      "aces": 5476,
      "tout": 5477,
      "aya": 5478,
      "ointed": 5479,
      "▁conditions": 5480,
      "▁invol": 5481,
      "▁Liste": 5482,
      " N": 5483,
      "▁Ear": 5484,
      "▁Minister": 5485,
      "uration": 5486,
      "▁Ve": 5487,
      "▁jud": 5488,
      "▁request": 5489,
      "▁situation": 5490,
      "erman": 5491,
      "haus": 5492,
      "▁fille": 5493,
      "▁established": 5494,
      "bourg": 5495,
      "▁without": 5496,
      "mark": 5497,
      "eden": 5498,
      "▁fol": 5499,
      "▁Commun": 5500,
      "▁petit": 5501,
      "▁Boy": 5502,
      "chest": 5503,
      "alisation": 5504,
      "▁côté": 5505,
      "▁Rail": 5506,
      "▁Indian": 5507,
      "Index": 5508,
      "_M": 5509,
      "▁Pla": 5510,
      "▁married": 5511,
      "▁Kon": 5512,
      "▁Las": 5513,
      "▁front": 5514,
      "▁instr": 5515,
      "idente": 5516,
      "▁course": 5517,
      "gs": 5518,
      "lip": 5519,
      "▁color": 5520,
      " S": 5521,
      "())": 5522,
      "▁af": 5523,
      "▁Lat": 5524,
      "▁index": 5525,
      "▁Hal": 5526,
      "tenant": 5527,
      "▁forces": 5528,
      "the": 5529,
      "▁input": 5530,
      "▁gl": 5531,
      "▁gé": 5532,
      "▁Gro": 5533,
      "▁signific": 5534,
      "▁<<": 5535,
      "raine": 5536,
      "▁region": 5537,
      "▁américain": 5538,
      "▁Nom": 5539,
      "▁development": 5540,
      "▁econom": 5541,
      "ube": 5542,
      "▁Chic": 5543,
      "âce": 5544,
      "▁Fra": 5545,
      "stance": 5546,
      "▁wind": 5547,
      "▁formation": 5548,
      "▁Max": 5549,
      "aron": 5550,
      "tained": 5551,
      "▁Sand": 5552,
      "▁road": 5553,
      "ols": 5554,
      "Th": 5555,
      "aro": 5556,
      "lichen": 5557,
      "illon": 5558,
      "▁comment": 5559,
      "▁DF": 5560,
      "▁Society": 5561,
      "▁dri": 5562,
      "▁collection": 5563,
      "▁Rem": 5564,
      "▁pil": 5565,
      "Response": 5566,
      "▁sac": 5567,
      "▁Bon": 5568,
      "phe": 5569,
      "shire": 5570,
      "▁returned": 5571,
      "▁way": 5572,
      " ft": 5573,
      "aye": 5574,
      "ways": 5575,
      "las": 5576,
      "taine": 5577,
      "lectr": 5578,
      "▁worked": 5579,
      "îne": 5580,
      "▁subs": 5581,
      "ittee": 5582,
      "▁donne": 5583,
      "▁Big": 5584,
      "▁Portug": 5585,
      "▁dra": 5586,
      "▁Court": 5587,
      "▁Chap": 5588,
      "▁siècle": 5589,
      "▁export": 5590,
      "CC": 5591,
      "▁Pac": 5592,
      "▁Alf": 5593,
      "▁pein": 5594,
      "▁seul": 5595,
      " in": 5596,
      "▁Éc": 5597,
      "▁Gir": 5598,
      "▁présente": 5599,
      "▁devant": 5600,
      "▁Hor": 5601,
      "ny": 5602,
      "IM": 5603,
      "▁full": 5604,
      "▁Work": 5605,
      "tagne": 5606,
      "▁see": 5607,
      "Exception": 5608,
      "▁jur": 5609,
      "amer": 5610,
      "▁Lim": 5611,
      "▁genre": 5612,
      "▁écri": 5613,
      "file": 5614,
      "▁character": 5615,
      "yan": 5616,
      "▁(*": 5617,
      "▁tête": 5618,
      "habit": 5619,
      "▁Dep": 5620,
      "Text": 5621,
      "▁Mun": 5622,
      "word": 5623,
      "▁femmes": 5624,
      "▁maison": 5625,
      "▁Sain": 5626,
      "▁cher": 5627,
      "▁Conn": 5628,
      "omme": 5629,
      "▁does": 5630,
      "iler": 5631,
      "▁/*": 5632,
      "oney": 5633,
      " L": 5634,
      "Field": 5635,
      "igu": 5636,
      "▁uti": 5637,
      "uter": 5638,
      "▁works": 5639,
      "reen": 5640,
      "azine": 5641,
      "▁zone": 5642,
      "ardo": 5643,
      "▁create": 5644,
      "▁fix": 5645,
      "ters": 5646,
      "inese": 5647,
      "▁Over": 5648,
      "Size": 5649,
      "▁Western": 5650,
      "▁press": 5651,
      "riter": 5652,
      "\"),": 5653,
      "▁Hong": 5654,
      "▁director": 5655,
      "▁probl": 5656,
      "▁...": 5657,
      "gue": 5658,
      "cian": 5659,
      "▁started": 5660,
      "auche": 5661,
      "ão": 5662,
      "▁rép": 5663,
      "summary": 5664,
      "▁organis": 5665,
      "idos": 5666,
      "▁jamais": 5667,
      "▁});": 5668,
      "Man": 5669,
      "▁parc": 5670,
      "▁Brown": 5671,
      "▁Inc": 5672,
      "▁AN": 5673,
      ",$": 5674,
      "▁radio": 5675,
      "▁Dam": 5676,
      "▁atte": 5677,
      "gt": 5678,
      "ring": 5679,
      "▁Song": 5680,
      "▁vale": 5681,
      "▁nec": 5682,
      "▁central": 5683,
      "utsch": 5684,
      "▁joined": 5685,
      "▁announ": 5686,
      " n": 5687,
      "▁late": 5688,
      "▁Rank": 5689,
      "ories": 5690,
      "▁mission": 5691,
      "esc": 5692,
      "length": 5693,
      "▁Nach": 5694,
      "ically": 5695,
      "ync": 5696,
      "▁{\\": 5697,
      "▁Liberal": 5698,
      "issions": 5699,
      "irs": 5700,
      "tab": 5701,
      "▁Life": 5702,
      "▁race": 5703,
      "éné": 5704,
      "▁config": 5705,
      "▁Cos": 5706,
      "kes": 5707,
      "▁orient": 5708,
      "▁cho": 5709,
      "▁Service": 5710,
      "times": 5711,
      "ockey": 5712,
      "▁asse": 5713,
      "▁Mah": 5714,
      "▁item": 5715,
      "▁court": 5716,
      "▁José": 5717,
      "▁retour": 5718,
      "tempor": 5719,
      "ases": 5720,
      "gra": 5721,
      "Sc": 5722,
      "▁Inf": 5723,
      "▁Bet": 5724,
      "▁Laur": 5725,
      "▁jeune": 5726,
      "éral": 5727,
      "[\"": 5728,
      "ream": 5729,
      "▁change": 5730,
      "uj": 5731,
      "▁études": 5732,
      "cted": 5733,
      "▁pris": 5734,
      "▁Espagne": 5735,
      "pes": 5736,
      "Path": 5737,
      "illi": 5738,
      "Test": 5739,
      "▁Wood": 5740,
      "▁Hon": 5741,
      "lande": 5742,
      "▁mach": 5743,
      "▁membre": 5744,
      "spec": 5745,
      "▁__": 5746,
      "▁industri": 5747,
      "▁Description": 5748,
      "▁troisième": 5749,
      "enza": 5750,
      "▁Space": 5751,
      "lio": 5752,
      "▁message": 5753,
      "umer": 5754,
      "▁among": 5755,
      "▁Maur": 5756,
      "ensis": 5757,
      "▁compar": 5758,
      "▁param": 5759,
      "▁situé": 5760,
      "▁Football": 5761,
      "▁aj": 5762,
      "ospital": 5763,
      "▁Ven": 5764,
      "▁Oper": 5765,
      "▁mix": 5766,
      "gment": 5767,
      "▁written": 5768,
      "oux": 5769,
      "At": 5770,
      "▁Texas": 5771,
      "▁Alexand": 5772,
      "cles": 5773,
      "▁feature": 5774,
      "azz": 5775,
      "▁transform": 5776,
      "ück": 5777,
      "▁fore": 5778,
      "▁abb": 5779,
      "▁solo": 5780,
      "▁Def": 5781,
      "code": 5782,
      "▁domin": 5783,
      "aged": 5784,
      "▁Sir": 5785,
      "▁surtout": 5786,
      "▁response": 5787,
      "pring": 5788,
      "ells": 5789,
      "▁Sav": 5790,
      "▁project": 5791,
      "▁simp": 5792,
      "▁simple": 5793,
      "izz": 5794,
      "▁Other": 5795,
      "▁favor": 5796,
      "▁limit": 5797,
      "liche": 5798,
      "▁Hug": 5799,
      "./": 5800,
      "xb": 5801,
      "▁premiers": 5802,
      "▁Jus": 5803,
      "érique": 5804,
      "▁aband": 5805,
      "▁Bus": 5806,
      "▁capit": 5807,
      "ving": 5808,
      "Form": 5809,
      "▁ici": 5810,
      "▁described": 5811,
      "▁million": 5812,
      "ensive": 5813,
      "▁civil": 5814,
      "▁elected": 5815,
      "atural": 5816,
      "vement": 5817,
      "▁collabor": 5818,
      "▁auteur": 5819,
      "▁Mas": 5820,
      "▁east": 5821,
      "entif": 5822,
      "▁oblig": 5823,
      "fil": 5824,
      "▁cadre": 5825,
      "▁renc": 5826,
      "tual": 5827,
      "▁liber": 5828,
      "▁manière": 5829,
      "▁Quarter": 5830,
      "▁Old": 5831,
      "▁dens": 5832,
      "▁map": 5833,
      "▁Ul": 5834,
      "▁Pas": 5835,
      "▁Chicago": 5836,
      "▁Prin": 5837,
      "▁Conseil": 5838,
      "▁einem": 5839,
      "zz": 5840,
      "▁parce": 5841,
      "ènes": 5842,
      "pha": 5843,
      "▁Album": 5844,
      "▁jug": 5845,
      "nent": 5846,
      "▁mont": 5847,
      "▁Lor": 5848,
      "▁Far": 5849,
      "▁array": 5850,
      "▁sil": 5851,
      "▁CH": 5852,
      "▁ers": 5853,
      "▁games": 5854,
      "▁NC": 5855,
      "pa": 5856,
      "ending": 5857,
      "frac": 5858,
      "▁Run": 5859,
      "▁autom": 5860,
      "anding": 5861,
      "▁continu": 5862,
      "▁capac": 5863,
      "▁espèce": 5864,
      "year": 5865,
      "▁Kr": 5866,
      "verse": 5867,
      "▁report": 5868,
      "▁Empire": 5869,
      "▁mondiale": 5870,
      "▁political": 5871,
      "ancer": 5872,
      "▁Bud": 5873,
      "ride": 5874,
      "▁scène": 5875,
      "▁fri": 5876,
      "anne": 5877,
      "▁Kim": 5878,
      "hic": 5879,
      "▁research": 5880,
      "▁DN": 5881,
      "net": 5882,
      "▁Semif": 5883,
      "valid": 5884,
      "View": 5885,
      "▁regard": 5886,
      "▁Field": 5887,
      "SS": 5888,
      "Node": 5889,
      "ieur": 5890,
      "▁Will": 5891,
      "▁struct": 5892,
      "▁Mill": 5893,
      "Message": 5894,
      "▁†": 5895,
      "▁Isra": 5896,
      "Event": 5897,
      "aï": 5898,
      "▁minutes": 5899,
      "▁sul": 5900,
      "issant": 5901,
      "▁various": 5902,
      "▁Jer": 5903,
      "once": 5904,
      "▁Prés": 5905,
      "äs": 5906,
      "▁far": 5907,
      "lector": 5908,
      "tz": 5909,
      "aken": 5910,
      "▁Doc": 5911,
      "onie": 5912,
      "struction": 5913,
      "▁Press": 5914,
      "▁Ale": 5915,
      "taines": 5916,
      "▁rej": 5917,
      "▁deta": 5918,
      "▁rel": 5919,
      "BA": 5920,
      "▁pur": 5921,
      "wan": 5922,
      "dire": 5923,
      "▁Set": 5924,
      "▁block": 5925,
      "alley": 5926,
      "▁tw": 5927,
      "onnement": 5928,
      "▁License": 5929,
      "▁Cy": 5930,
      "roit": 5931,
      "aka": 5932,
      "issent": 5933,
      "tn": 5934,
      "▁went": 5935,
      "▁précéd": 5936,
      "fr": 5937,
      "▁popular": 5938,
      "bach": 5939,
      "▁einen": 5940,
      "▁came": 5941,
      "▁terre": 5942,
      "EX": 5943,
      "▁times": 5944,
      "rea": 5945,
      "▁Tok": 5946,
      "▁police": 5947,
      "▁Japanese": 5948,
      "iert": 5949,
      "rote": 5950,
      "▁inves": 5951,
      "▁chans": 5952,
      "▁pun": 5953,
      "▁Rang": 5954,
      "/*": 5955,
      "ogue": 5956,
      "ordin": 5957,
      "▁Lar": 5958,
      "▁transfer": 5959,
      "▁explo": 5960,
      "▁track": 5961,
      "▁Pap": 5962,
      "▁often": 5963,
      "ategory": 5964,
      "▁européenne": 5965,
      "▁coach": 5966,
      "▁Main": 5967,
      "▁britann": 5968,
      "rec": 5969,
      "dit": 5970,
      "érica": 5971,
      "ither": 5972,
      "▁commission": 5973,
      "oule": 5974,
      "▁assert": 5975,
      "▁Event": 5976,
      "▁Moh": 5977,
      "▁también": 5978,
      "▁Parliament": 5979,
      "esto": 5980,
      "abeth": 5981,
      "json": 5982,
      "▁Santa": 5983,
      "▁blanc": 5984,
      "alt": 5985,
      "▁gran": 5986,
      "▁Labour": 5987,
      "tait": 5988,
      "uits": 5989,
      "▁Sy": 5990,
      "▁dar": 5991,
      "INE": 5992,
      "cel": 5993,
      "férence": 5994,
      "ership": 5995,
      "▁voc": 5996,
      "▁Norm": 5997,
      "▁tent": 5998,
      "SP": 5999,
      "▁unter": 6000,
      "OC": 6001,
      "▁ment": 6002,
      "▁roy": 6003,
      "ators": 6004,
      "▁These": 6005,
      "▁carrière": 6006,
      "qual": 6007,
      "▁our": 6008,
      "▁continue": 6009,
      "▁trouv": 6010,
      "▁card": 6011,
      "▁label": 6012,
      "▁nommé": 6013,
      "▁How": 6014,
      "▁Oh": 6015,
      "cript": 6016,
      "▁body": 6017,
      "▁Bad": 6018,
      "▁complex": 6019,
      "▁context": 6020,
      "▁cover": 6021,
      "▁produ": 6022,
      "▁half": 6023,
      "uge": 6024,
      "▁données": 6025,
      "▁Albert": 6026,
      "▁Aff": 6027,
      "▁Lad": 6028,
      "▁pod": 6029,
      "▁defe": 6030,
      "▁intér": 6031,
      "▁tot": 6032,
      "▁école": 6033,
      "rant": 6034,
      "▁office": 6035,
      "▁durant": 6036,
      "▁good": 6037,
      "▁diss": 6038,
      "dy": 6039,
      "▁surv": 6040,
      "▁having": 6041,
      "span": 6042,
      "▁Jon": 6043,
      "▁Da": 6044,
      "▁feu": 6045,
      "▁qual": 6046,
      "util": 6047,
      "▁più": 6048,
      "tré": 6049,
      "position": 6050,
      "Is": 6051,
      "tière": 6052,
      "▁ministre": 6053,
      "▁Villa": 6054,
      "▁Uk": 6055,
      "▁liste": 6056,
      "atore": 6057,
      "QU": 6058,
      "lied": 6059,
      "▁Championships": 6060,
      "▁âge": 6061,
      "▁individu": 6062,
      "▁accep": 6063,
      "▁Institute": 6064,
      "▁Matt": 6065,
      "▁Orig": 6066,
      "▁Stra": 6067,
      "▁Bank": 6068,
      "ennis": 6069,
      "acional": 6070,
      "ynam": 6071,
      "▁don": 6072,
      "▁Match": 6073,
      "ël": 6074,
      "▁http": 6075,
      "▁objet": 6076,
      "▁sono": 6077,
      "▁throw": 6078,
      "▁demande": 6079,
      "igan": 6080,
      "sych": 6081,
      "rey": 6082,
      " kg": 6083,
      "▁Techn": 6084,
      "▁indé": 6085,
      "▁Wind": 6086,
      "▁Ari": 6087,
      "▁Sun": 6088,
      "list": 6089,
      "ailable": 6090,
      "ording": 6091,
      "obile": 6092,
      "▁lic": 6093,
      "TA": 6094,
      "rary": 6095,
      "▁Russian": 6096,
      "ached": 6097,
      "atoire": 6098,
      "ièrement": 6099,
      "▁Social": 6100,
      "▁Abd": 6101,
      "▁enseign": 6102,
      "Class": 6103,
      "uan": 6104,
      "bas": 6105,
      "umes": 6106,
      "obla": 6107,
      "▁jun": 6108,
      "▁mur": 6109,
      "▁status": 6110,
      "xa": 6111,
      "▁become": 6112,
      "▁passe": 6113,
      "▁Pass": 6114,
      "Be": 6115,
      "▁Cat": 6116,
      "▁aurait": 6117,
      "▁château": 6118,
      "▁Profess": 6119,
      "▁bata": 6120,
      "awa": 6121,
      "ocus": 6122,
      "▁God": 6123,
      "▁charg": 6124,
      "tte": 6125,
      "SE": 6126,
      "▁Conservative": 6127,
      "▁Academy": 6128,
      "▁Bes": 6129,
      "aki": 6130,
      "▁required": 6131,
      "Element": 6132,
      "▁Steph": 6133,
      "▁Zh": 6134,
      "ños": 6135,
      "iente": 6136,
      "▁rock": 6137,
      "▁Alexander": 6138,
      "ste": 6139,
      "IP": 6140,
      "▁Hand": 6141,
      "▁peup": 6142,
      "itaire": 6143,
      "▁Jud": 6144,
      "▁adap": 6145,
      "▁Span": 6146,
      "▁dernière": 6147,
      "='": 6148,
      "▁great": 6149,
      "▁Dom": 6150,
      "▁termin": 6151,
      "▁Stade": 6152,
      "pol": 6153,
      "▁Chinese": 6154,
      "▁Belgique": 6155,
      "▁vue": 6156,
      "▁administration": 6157,
      "dess": 6158,
      "ceed": 6159,
      "vision": 6160,
      "▁serait": 6161,
      "ugby": 6162,
      "▁combat": 6163,
      "▁Africa": 6164,
      "reland": 6165,
      "▁travaux": 6166,
      "xc": 6167,
      "known": 6168,
      "▁élev": 6169,
      ")$": 6170,
      "▁fle": 6171,
      "▁identif": 6172,
      "▁inn": 6173,
      "Al": 6174,
      "▁épisode": 6175,
      "yo": 6176,
      "▁Sab": 6177,
      "▁Johann": 6178,
      "mod": 6179,
      "geb": 6180,
      "istry": 6181,
      "▁caract": 6182,
      "▁miles": 6183,
      "▁founded": 6184,
      "aland": 6185,
      "ahr": 6186,
      "▁Kore": 6187,
      "▁dipl": 6188,
      "▁Juan": 6189,
      "▁oder": 6190,
      "▁grâce": 6191,
      "▁language": 6192,
      "▁guitar": 6193,
      "▁Hans": 6194,
      "▁Auf": 6195,
      "▁Atlan": 6196,
      "OD": 6197,
      "▁musique": 6198,
      "isions": 6199,
      "ifs": 6200,
      "utt": 6201,
      "▁Pic": 6202,
      "▁longue": 6203,
      "▁libre": 6204,
      "IG": 6205,
      "kov": 6206,
      "▁Église": 6207,
      "▁Ko": 6208,
      "▁Dub": 6209,
      "▁ru": 6210,
      "▁bâti": 6211,
      "▁sex": 6212,
      " J": 6213,
      "▁parties": 6214,
      "▁ave": 6215,
      "Param": 6216,
      "idents": 6217,
      "▁length": 6218,
      "▁Ali": 6219,
      "▁professional": 6220,
      "▁Gh": 6221,
      "amen": 6222,
      "ruc": 6223,
      "hem": 6224,
      "habitants": 6225,
      "php": 6226,
      "len": 6227,
      "▁tax": 6228,
      "▁Edward": 6229,
      "▁Italy": 6230,
      "▁Two": 6231,
      "orme": 6232,
      "▁effort": 6233,
      "rés": 6234,
      "▁video": 6235,
      "▁transport": 6236,
      "AF": 6237,
      "▁avons": 6238,
      "▁cam": 6239,
      "▁alle": 6240,
      "xd": 6241,
      "Mod": 6242,
      "▁Pts": 6243,
      "éon": 6244,
      "mos": 6245,
      "band": 6246,
      "▁teams": 6247,
      "▁sais": 6248,
      "▁voyage": 6249,
      "▁livre": 6250,
      "▁Gard": 6251,
      "▁Williams": 6252,
      "▁bron": 6253,
      "▁active": 6254,
      "duced": 6255,
      "IV": 6256,
      "rement": 6257,
      "comp": 6258,
      "▁Haw": 6259,
      "path": 6260,
      "▁gard": 6261,
      "étition": 6262,
      "▁fé": 6263,
      "▁assez": 6264,
      "▁Arts": 6265,
      "▁Log": 6266,
      "cio": 6267,
      "▁appointed": 6268,
      "▁SC": 6269,
      "Or": 6270,
      "▁anglais": 6271,
      "ged": 6272,
      "▁Ligue": 6273,
      "êtes": 6274,
      "isa": 6275,
      "êts": 6276,
      "tivo": 6277,
      "GL": 6278,
      "▁(\"": 6279,
      "ountain": 6280,
      "Log": 6281,
      "▁avaient": 6282,
      "▁hô": 6283,
      "▁produced": 6284,
      "▁milieu": 6285,
      "▁Équ": 6286,
      "▁Méd": 6287,
      "▁free": 6288,
      "ément": 6289,
      "▁Nik": 6290,
      "▁importante": 6291,
      "▁events": 6292,
      "▁deg": 6293,
      "▁Dev": 6294,
      "▁Marg": 6295,
      "temps": 6296,
      "▁tom": 6297,
      "inger": 6298,
      "▁quelque": 6299,
      "▁example": 6300,
      "▁bord": 6301,
      "md": 6302,
      "▁République": 6303,
      "▁prem": 6304,
      "Up": 6305,
      "▁alc": 6306,
      "▁cross": 6307,
      "▁tor": 6308,
      "▁riv": 6309,
      "▁ide": 6310,
      "▁competition": 6311,
      "▁offer": 6312,
      "▁découver": 6313,
      "▁issue": 6314,
      "▁Hum": 6315,
      "▁appe": 6316,
      "▁ly": 6317,
      "ße": 6318,
      "▁AR": 6319,
      "▁Line": 6320,
      "▁rank": 6321,
      "▁Sin": 6322,
      "ingen": 6323,
      "▁More": 6324,
      "▁party": 6325,
      "▁gradu": 6326,
      "▁Angeles": 6327,
      "▁separ": 6328,
      "▁SP": 6329,
      "▁particulier": 6330,
      "car": 6331,
      "fa": 6332,
      "uffer": 6333,
      "▁Career": 6334,
      "▁Game": 6335,
      "▁beh": 6336,
      "▁Penn": 6337,
      "EM": 6338,
      "▁déta": 6339,
      "_D": 6340,
      "▁End": 6341,
      "▁Ken": 6342,
      "▁arriv": 6343,
      "▁Book": 6344,
      "▁extr": 6345,
      "▁nombreuses": 6346,
      "▁wie": 6347,
      "▁remar": 6348,
      "▁zwe": 6349,
      "▁debut": 6350,
      "▁marqu": 6351,
      "onnes": 6352,
      "▁results": 6353,
      "▁ear": 6354,
      "▁Route": 6355,
      "_F": 6356,
      "▁Back": 6357,
      "▁permett": 6358,
      "▁Stan": 6359,
      "▁capital": 6360,
      "▁lug": 6361,
      "}{\\": 6362,
      "▁Bol": 6363,
      "lies": 6364,
      "▁education": 6365,
      "kin": 6366,
      "Hand": 6367,
      "▁litté": 6368,
      "aign": 6369,
      "▁adj": 6370,
      "▁studio": 6371,
      "▁Philippe": 6372,
      "▁primer": 6373,
      "▁assur": 6374,
      "▁compagn": 6375,
      "acy": 6376,
      "gie": 6377,
      "▁performance": 6378,
      "ivent": 6379,
      "bb": 6380,
      "▁target": 6381,
      "({": 6382,
      "▁Russia": 6383,
      "▁Sport": 6384,
      "▁Als": 6385,
      "pped": 6386,
      "uti": 6387,
      "aughter": 6388,
      "▁meet": 6389,
      "aval": 6390,
      " C": 6391,
      "▁dix": 6392,
      "▁AP": 6393,
      "FC": 6394,
      "ieder": 6395,
      "ENT": 6396,
      "round": 6397,
      "illy": 6398,
      "terre": 6399,
      "ghts": 6400,
      "édia": 6401,
      "urity": 6402,
      "gether": 6403,
      "▁concl": 6404,
      "▁Force": 6405,
      "▁gro": 6406,
      "▁champion": 6407,
      "ishop": 6408,
      "po": 6409,
      "([": 6410,
      "▁together": 6411,
      "▁Bernard": 6412,
      "▁agre": 6413,
      "émie": 6414,
      "index": 6415,
      "liance": 6416,
      "uar": 6417,
      "xff": 6418,
      "▁Home": 6419,
      "▁days": 6420,
      "▁however": 6421,
      "▁occasion": 6422,
      "▁(!": 6423,
      "▁how": 6424,
      "▁Source": 6425,
      "anie": 6426,
      "tx": 6427,
      "▁Jones": 6428,
      "▁sorti": 6429,
      "▁opened": 6430,
      "▁Anne": 6431,
      "ising": 6432,
      "▁Camb": 6433,
      "ULL": 6434,
      "▁progress": 6435,
      "Array": 6436,
      "▁Canadian": 6437,
      "▁org": 6438,
      "▁tend": 6439,
      "▁wrote": 6440,
      "▁Ca": 6441,
      "▁Lie": 6442,
      "▁varia": 6443,
      "\\+\\": 6444,
      "▁Tar": 6445,
      "▁ich": 6446,
      "▁few": 6447,
      "gé": 6448,
      "▁prac": 6449,
      "itable": 6450,
      "aft": 6451,
      "▁altern": 6452,
      "▁teach": 6453,
      "utenant": 6454,
      "▁Person": 6455,
      "▁recherche": 6456,
      "lab": 6457,
      "▁Young": 6458,
      "kins": 6459,
      "agen": 6460,
      "▁Syn": 6461,
      "▁bat": 6462,
      "▁Tod": 6463,
      "venue": 6464,
      "▁Blue": 6465,
      "▁Department": 6466,
      "▁surface": 6467,
      "aume": 6468,
      "User": 6469,
      "left": 6470,
      "▁cab": 6471,
      "▁existe": 6472,
      "ingham": 6473,
      "Map": 6474,
      "▁lost": 6475,
      "jan": 6476,
      "ahn": 6477,
      "▁ouver": 6478,
      "ftware": 6479,
      "issance": 6480,
      "▁terme": 6481,
      "▁Plus": 6482,
      "▁Bab": 6483,
      "cée": 6484,
      "acc": 6485,
      "▁conduc": 6486,
      "ulations": 6487,
      "▁professionn": 6488,
      "▁unique": 6489,
      "▁pobla": 6490,
      "▁création": 6491,
      "▁André": 6492,
      "orter": 6493,
      "▁grands": 6494,
      "▁anche": 6495,
      "▁reb": 6496,
      "tainer": 6497,
      "olean": 6498,
      "▁lec": 6499,
      "lock": 6500,
      "▁Inform": 6501,
      "▁Series": 6502,
      "▁web": 6503,
      "änd": 6504,
      "▁bois": 6505,
      "▁Coll": 6506,
      "▁Stand": 6507,
      "▁Fab": 6508,
      "jects": 6509,
      "▁Deux": 6510,
      "▁page": 6511,
      "▁stra": 6512,
      "iden": 6513,
      "▁node": 6514,
      "▁Ash": 6515,
      "▁philosoph": 6516,
      "▁};": 6517,
      "airs": 6518,
      "arc": 6519,
      "kt": 6520,
      "▁Afrique": 6521,
      "▁commence": 6522,
      "▁Corn": 6523,
      "▁students": 6524,
      "▁UN": 6525,
      "quet": 6526,
      "▁Nouv": 6527,
      "▁Nap": 6528,
      "box": 6529,
      "','": 6530,
      "aly": 6531,
      "▁Navy": 6532,
      "▁étude": 6533,
      "▁Hy": 6534,
      "▁communic": 6535,
      "▁Early": 6536,
      "itaine": 6537,
      "ainque": 6538,
      "mas": 6539,
      "▁Games": 6540,
      "char": 6541,
      "▁grandes": 6542,
      "▁Cle": 6543,
      "▁similar": 6544,
      "▁announced": 6545,
      "erein": 6546,
      "▁donné": 6547,
      "thur": 6548,
      "lang": 6549,
      "cu": 6550,
      "ums": 6551,
      "▁ST": 6552,
      "▁championnat": 6553,
      "▁Angle": 6554,
      "▁joueur": 6555,
      "▁pron": 6556,
      "▁ancienne": 6557,
      "▁VI": 6558,
      "▁possib": 6559,
      "▁politician": 6560,
      "stant": 6561,
      "▁Ford": 6562,
      "▁Francisco": 6563,
      "▁()": 6564,
      "▁further": 6565,
      "▁working": 6566,
      "▁technique": 6567,
      "lad": 6568,
      "icon": 6569,
      "▁liter": 6570,
      "▁Math": 6571,
      "▁Antonio": 6572,
      "sg": 6573,
      "ih": 6574,
      "OM": 6575,
      "▁sout": 6576,
      "▁haut": 6577,
      "HL": 6578,
      "▁Ts": 6579,
      "▁caractéris": 6580,
      "▁restaur": 6581,
      "▁allemand": 6582,
      "▁Herr": 6583,
      "▁Thé": 6584,
      "▁Score": 6585,
      "▁Guerre": 6586,
      "place": 6587,
      "▁wife": 6588,
      "ôme": 6589,
      "▁différents": 6590,
      "istance": 6591,
      "anth": 6592,
      "ru": 6593,
      "▁Eg": 6594,
      "App": 6595,
      "ounds": 6596,
      "ohn": 6597,
      "re ": 6598,
      "▁mand": 6599,
      "wait": 6600,
      "size": 6601,
      "▁films": 6602,
      "▁charge": 6603,
      "▁nég": 6604,
      "▁Ant": 6605,
      "▁Simon": 6606,
      "▁conta": 6607,
      "▁prendre": 6608,
      "▁Joe": 6609,
      "lage": 6610,
      "▁recorded": 6611,
      "illed": 6612,
      "aug": 6613,
      "▁vér": 6614,
      "▁importance": 6615,
      "▁+=": 6616,
      "▁Évolution": 6617,
      "unis": 6618,
      "▁material": 6619,
      "▁moyenne": 6620,
      "▁claim": 6621,
      "usta": 6622,
      "▁electr": 6623,
      "▁--": 6624,
      "_st": 6625,
      "house": 6626,
      "▁dig": 6627,
      "▁mesure": 6628,
      "▁emplo": 6629,
      "▁Grande": 6630,
      "▁Europa": 6631,
      "▁ing": 6632,
      "▁Ern": 6633,
      "▁os": 6634,
      "▁parmi": 6635,
      "▁±": 6636,
      "rez": 6637,
      "▁droits": 6638,
      "▁stage": 6639,
      "▁Bron": 6640,
      "▁vote": 6641,
      "▁manif": 6642,
      "▁voix": 6643,
      "OP": 6644,
      "ulté": 6645,
      "▁Ireland": 6646,
      "can": 6647,
      "▁chose": 6648,
      "▁week": 6649,
      "▁attemp": 6650,
      "▁Anth": 6651,
      "▁live": 6652,
      "▁île": 6653,
      "▁pours": 6654,
      "▁militaire": 6655,
      "▁millions": 6656,
      "▁différentes": 6657,
      "▁Mexico": 6658,
      "▁Some": 6659,
      "▁principale": 6660,
      "=>": 6661,
      "ologne": 6662,
      "ests": 6663,
      "▁seule": 6664,
      "▁attra": 6665,
      "ternal": 6666,
      "▁military": 6667,
      "ee": 6668,
      "ipo": 6669,
      "▁Card": 6670,
      "andis": 6671,
      "▁gauche": 6672,
      "▁continued": 6673,
      "▁Domin": 6674,
      "▁Ross": 6675,
      "▁application": 6676,
      "▁envir": 6677,
      "▁pp": 6678,
      "▁rien": 6679,
      "tivement": 6680,
      "▁cost": 6681,
      "eur": 6682,
      "▁put": 6683,
      "▁fit": 6684,
      "▁artis": 6685,
      "enses": 6686,
      "▁expéri": 6687,
      "itaires": 6688,
      " h": 6689,
      "▁dispar": 6690,
      "oms": 6691,
      "▁texte": 6692,
      "▁mid": 6693,
      "trans": 6694,
      "▁attack": 6695,
      " cm": 6696,
      "ined": 6697,
      "opo": 6698,
      "▁maxim": 6699,
      "chan": 6700,
      "▁Organ": 6701,
      "_re": 6702,
      "▁Italian": 6703,
      "▁programme": 6704,
      "▁mère": 6705,
      "▁minist": 6706,
      "▁output": 6707,
      "▁Republican": 6708,
      "▁associ": 6709,
      "▁essenti": 6710,
      "tour": 6711,
      "▁Selon": 6712,
      "▁pied": 6713,
      "▁Arena": 6714,
      "érer": 6715,
      "▁collec": 6716,
      "▁succès": 6717,
      "▁Pi": 6718,
      "▁Country": 6719,
      "▁FW": 6720,
      "▁belie": 6721,
      "▁interpr": 6722,
      "▁float": 6723,
      "mont": 6724,
      "▁Summer": 6725,
      "▁Mu": 6726,
      "▁Alb": 6727,
      "▁content": 6728,
      "▁régul": 6729,
      "▁rapid": 6730,
      "▁Mons": 6731,
      "▁Studi": 6732,
      "▁),": 6733,
      "▁municipal": 6734,
      "▁Radio": 6735,
      "▁parfois": 6736,
      "ming": 6737,
      "▁hous": 6738,
      "TP": 6739,
      "▁Dor": 6740,
      "================": 6741,
      "▁McC": 6742,
      "▁Post": 6743,
      "trice": 6744,
      "urr": 6745,
      "▁Province": 6746,
      "find": 6747,
      "CL": 6748,
      "asi": 6749,
      "▁cependant": 6750,
      "▁siège": 6751,
      "▁Arab": 6752,
      "▁celles": 6753,
      "▁tal": 6754,
      "▁Komm": 6755,
      "onna": 6756,
      "▁connu": 6757,
      "▁Result": 6758,
      " A": 6759,
      "limin": 6760,
      "▁types": 6761,
      "zil": 6762,
      "▁lequel": 6763,
      "apon": 6764,
      "▁petite": 6765,
      "keit": 6766,
      "chester": 6767,
      "▁Lin": 6768,
      "tienne": 6769,
      "▁protection": 6770,
      "db": 6771,
      "▁Mol": 6772,
      "▁coll": 6773,
      "▁pan": 6774,
      "▁Lind": 6775,
      "aves": 6776,
      "pose": 6777,
      "▁Good": 6778,
      "js": 6779,
      "esta": 6780,
      "▁Saison": 6781,
      "adel": 6782,
      "▁contribu": 6783,
      "▁Rober": 6784,
      "riv": 6785,
      "▁poste": 6786,
      "▁Lam": 6787,
      "▁low": 6788,
      "▁Band": 6789,
      "Ser": 6790,
      "▁Angleterre": 6791,
      "ema": 6792,
      "gel": 6793,
      "▁prior": 6794,
      "▁ban": 6795,
      "êmes": 6796,
      "▁Colomb": 6797,
      "_w": 6798,
      "▁née": 6799,
      "▁sen": 6800,
      "▁areas": 6801,
      "ocr": 6802,
      "▁young": 6803,
      "▁édition": 6804,
      "edy": 6805,
      "fec": 6806,
      "▁Spe": 6807,
      "ovo": 6808,
      "▁check": 6809,
      "▁grow": 6810,
      "▁aide": 6811,
      "kh": 6812,
      "▁Fried": 6813,
      "iteur": 6814,
      "igneur": 6815,
      "▁Jr": 6816,
      "Model": 6817,
      "▁spéci": 6818,
      "hre": 6819,
      "▁Ref": 6820,
      "▁mode": 6821,
      "▁exerc": 6822,
      " B": 6823,
      "▁Cel": 6824,
      "▁especial": 6825,
      "inet": 6826,
      "olution": 6827,
      "group": 6828,
      "▁repres": 6829,
      "▁neg": 6830,
      "▁Member": 6831,
      "▁$(": 6832,
      "pu": 6833,
      "ika": 6834,
      "On": 6835,
      "▁cast": 6836,
      "▁rempla": 6837,
      "tateurs": 6838,
      "▁Fac": 6839,
      "▁classe": 6840,
      "yth": 6841,
      "èque": 6842,
      "▁exception": 6843,
      "▁rights": 6844,
      "▁len": 6845,
      "▁story": 6846,
      "iée": 6847,
      "▁Mike": 6848,
      "▁Championnat": 6849,
      "▁According": 6850,
      "▁financi": 6851,
      "▁Zealand": 6852,
      "▁Register": 6853,
      "▁African": 6854,
      "ecutive": 6855,
      "▁Hay": 6856,
      "uelle": 6857,
      "▁Barb": 6858,
      "▁semble": 6859,
      "▁alg": 6860,
      "▁review": 6861,
      "▁moyen": 6862,
      "erb": 6863,
      "▁Dra": 6864,
      "▁mati": 6865,
      "▁Bell": 6866,
      "atrix": 6867,
      "▁contempor": 6868,
      "▁formed": 6869,
      "▁property": 6870,
      "▁senti": 6871,
      "defin": 6872,
      "iding": 6873,
      "▁Var": 6874,
      "Group": 6875,
      "▁None": 6876,
      "▁Columb": 6877,
      "embly": 6878,
      "▁available": 6879,
      "eters": 6880,
      "ergy": 6881,
      "▁Disc": 6882,
      "▁cell": 6883,
      "▁Qual": 6884,
      "ni": 6885,
      "▁Virginia": 6886,
      "▁perd": 6887,
      "▁organisation": 6888,
      "ustin": 6889,
      "▁mouvement": 6890,
      "onneur": 6891,
      "\"]": 6892,
      "▁above": 6893,
      "▁recens": 6894,
      "▁Austri": 6895,
      "éta": 6896,
      "▁Wir": 6897,
      "▁esta": 6898,
      "▁close": 6899,
      "▁format": 6900,
      "▁élè": 6901,
      "Client": 6902,
      "dos": 6903,
      "▁Let": 6904,
      "ev": 6905,
      "▁Record": 6906,
      "^,$": 6907,
      "aff": 6908,
      "▁Player": 6909,
      "▁television": 6910,
      "▁mic": 6911,
      "post": 6912,
      "▁Gé": 6913,
      "▁influence": 6914,
      "▁Liv": 6915,
      "fort": 6916,
      "▁fire": 6917,
      "▁mayor": 6918,
      "▁mettre": 6919,
      "dr": 6920,
      "▁demand": 6921,
      "tia": 6922,
      "▁bal": 6923,
      "▁nouvelles": 6924,
      "▁gain": 6925,
      "ING": 6926,
      "▁exéc": 6927,
      "▁sujet": 6928,
      "▁journ": 6929,
      "▁commenc": 6930,
      "▁draw": 6931,
      "valu": 6932,
      "▁taken": 6933,
      "▁piano": 6934,
      " nord": 6935,
      "▁Ox": 6936,
      "▁Kenn": 6937,
      "FL": 6938,
      "▁Northern": 6939,
      "ographique": 6940,
      "Of": 6941,
      "▁Lord": 6942,
      "▁lorsque": 6943,
      "▁dia": 6944,
      "nel": 6945,
      "▁nob": 6946,
      "▁center": 6947,
      "▁demi": 6948,
      "esh": 6949,
      "_type": 6950,
      "▁recon": 6951,
      "▁Japon": 6952,
      "don": 6953,
      "▁tur": 6954,
      "aga": 6955,
      "▁Cham": 6956,
      "▁Gil": 6957,
      "ready": 6958,
      "▁Université": 6959,
      "ning": 6960,
      "section": 6961,
      "Token": 6962,
      "▁Kal": 6963,
      "{}": 6964,
      "▁Spain": 6965,
      "ourt": 6966,
      "▁Found": 6967,
      "▁absol": 6968,
      "ename": 6969,
      "▁mm": 6970,
      "▁chos": 6971,
      "▁Champion": 6972,
      "/**": 6973,
      "utz": 6974,
      "▁Part": 6975,
      "▁Tourn": 6976,
      "iva": 6977,
      "▁moi": 6978,
      "athan": 6979,
      "▁réalisé": 6980,
      "iquement": 6981,
      "▁science": 6982,
      "▁Johnson": 6983,
      "onto": 6984,
      "ône": 6985,
      "phy": 6986,
      "▁broad": 6987,
      "Out": 6988,
      "▁nur": 6989,
      "▁Sports": 6990,
      "▁Pen": 6991,
      "ked": 6992,
      "▁Dieu": 6993,
      "▁Cri": 6994,
      "anta": 6995,
      "Int": 6996,
      "▁Type": 6997,
      "TC": 6998,
      "▁gal": 6999,
      "New": 7000,
      "▁light": 7001,
      "din": 7002,
      "▁Tay": 7003,
      "▁regular": 7004,
      "▁Portugal": 7005,
      "▁tim": 7006,
      "▁AC": 7007,
      "▁figure": 7008,
      "▁conten": 7009,
      "lah": 7010,
      "▁fourn": 7011,
      "tiqu": 7012,
      "ennent": 7013,
      "▁league": 7014,
      "▁express": 7015,
      "▁Vi": 7016,
      "▁disting": 7017,
      "udad": 7018,
      "oco": 7019,
      "▁Free": 7020,
      "▁prima": 7021,
      "▁Seg": 7022,
      "▁plat": 7023,
      "▁langue": 7024,
      "▁repla": 7025,
      "enez": 7026,
      "▁Cha": 7027,
      "▁auto": 7028,
      "move": 7029,
      "Status": 7030,
      "▁daughter": 7031,
      "atory": 7032,
      "▁Ich": 7033,
      "tead": 7034,
      "▁EU": 7035,
      "▁Hard": 7036,
      "▁Us": 7037,
      "long": 7038,
      "▁augment": 7039,
      "▁black": 7040,
      "▁furent": 7041,
      "▁novel": 7042,
      "▁professe": 7043,
      "watch": 7044,
      "icial": 7045,
      "▁Ped": 7046,
      "outes": 7047,
      "heit": 7048,
      "ania": 7049,
      "▁association": 7050,
      "▁march": 7051,
      "▁location": 7052,
      "abel": 7053,
      "▁domaine": 7054,
      "▁tournament": 7055,
      "▁Wild": 7056,
      "▁Fa": 7057,
      "▁séc": 7058,
      "▁sua": 7059,
      "▁Cra": 7060,
      "étés": 7061,
      "▁Fu": 7062,
      "▁max": 7063,
      "▁nar": 7064,
      "aries": 7065,
      "▁Philipp": 7066,
      "oure": 7067,
      "▁Jeux": 7068,
      "uri": 7069,
      "▁fron": 7070,
      "▁Labor": 7071,
      "▁personne": 7072,
      "▁amp": 7073,
      "▁Á": 7074,
      "▁réf": 7075,
      "roller": 7076,
      "▁seconde": 7077,
      "▁rencontre": 7078,
      "▁recogn": 7079,
      "▁sculp": 7080,
      "▁ouest": 7081,
      "▁Boston": 7082,
      "▁ast": 7083,
      "▁Spanish": 7084,
      "orpor": 7085,
      "Comm": 7086,
      "cier": 7087,
      "▁numer": 7088,
      "▁Station": 7089,
      "▁déclar": 7090,
      "elli": 7091,
      "rik": 7092,
      "▁Kent": 7093,
      "▁UE": 7094,
      "antas": 7095,
      "▁average": 7096,
      "▁cé": 7097,
      "veur": 7098,
      "▁ot": 7099,
      "▁Under": 7100,
      "▁institu": 7101,
      "▁prison": 7102,
      "▁Russie": 7103,
      "itter": 7104,
      "ßen": 7105,
      "▁cart": 7106,
      "ski": 7107,
      "▁global": 7108,
      "▁nu": 7109,
      "▁Vinc": 7110,
      "▁once": 7111,
      "▁Way": 7112,
      "config": 7113,
      "▁release": 7114,
      "▁Its": 7115,
      "▁meilleur": 7116,
      "▁famil": 7117,
      "IF": 7118,
      "▁déput": 7119,
      "▁détermin": 7120,
      "▁making": 7121,
      "inos": 7122,
      "▁Secret": 7123,
      "▁either": 7124,
      "▁lett": 7125,
      "▁others": 7126,
      "▁façon": 7127,
      "rages": 7128,
      "▁require": 7129,
      "></": 7130,
      "▁mol": 7131,
      "▁Jeff": 7132,
      "▁completed": 7133,
      "▁Sainte": 7134,
      "▁vend": 7135,
      "ichte": 7136,
      "▁aucun": 7137,
      "Att": 7138,
      "atiques": 7139,
      "êque": 7140,
      "▁Little": 7141,
      "▁Bla": 7142,
      "▁Patrick": 7143,
      "tively": 7144,
      "▁gli": 7145,
      "▁considered": 7146,
      "▁Ast": 7147,
      "▁Four": 7148,
      "▁Kong": 7149,
      "▁-->": 7150,
      "▁dalla": 7151,
      "▁Cross": 7152,
      "▁Education": 7153,
      "▁signed": 7154,
      "unit": 7155,
      "uery": 7156,
      "resse": 7157,
      "mail": 7158,
      "▁stato": 7159,
      "▁vidé": 7160,
      "iennent": 7161,
      "▁désign": 7162,
      "uno": 7163,
      "otype": 7164,
      "▁Prince": 7165,
      "▁droite": 7166,
      "imo": 7167,
      "ajo": 7168,
      "▁politiques": 7169,
      "▁writer": 7170,
      "sm": 7171,
      "▁tandis": 7172,
      "▁aged": 7173,
      "▁Civ": 7174,
      "▁valid": 7175,
      "▁autour": 7176,
      "▁DV": 7177,
      "owie": 7178,
      "▁Committee": 7179,
      "titut": 7180,
      "ignes": 7181,
      "▁concent": 7182,
      "▁EN": 7183,
      "Line": 7184,
      ")(": 7185,
      "▁Science": 7186,
      "▁savoir": 7187,
      "▁université": 7188,
      "▁Carl": 7189,
      "ainqueur": 7190,
      "▁Carolina": 7191,
      "▁propre": 7192,
      "onds": 7193,
      "▁parents": 7194,
      "nam": 7195,
      "prit": 7196,
      "▁Mid": 7197,
      "▁Sov": 7198,
      ">(": 7199,
      "Reg": 7200,
      "truc": 7201,
      "ionnats": 7202,
      "▁distribu": 7203,
      "▁Société": 7204,
      "▁width": 7205,
      "▁suis": 7206,
      "▁score": 7207,
      "▁certaines": 7208,
      "▁distance": 7209,
      "▁note": 7210,
      "pan": 7211,
      "▁spéc": 7212,
      "Im": 7213,
      "ansas": 7214,
      "▁á": 7215,
      "▁Royaume": 7216,
      "▁Arn": 7217,
      "▁ferm": 7218,
      "ify": 7219,
      "▁Journal": 7220,
      "▁Mosc": 7221,
      "▁Georges": 7222,
      "▁minor": 7223,
      "▁PC": 7224,
      "▁Att": 7225,
      "▁investig": 7226,
      "▁Ker": 7227,
      "die": 7228,
      "▁aller": 7229,
      "▁olymp": 7230,
      "BS": 7231,
      "▁rang": 7232,
      "dez": 7233,
      "▁sn": 7234,
      "▁reven": 7235,
      "For": 7236,
      "ionale": 7237,
      "▁Hung": 7238,
      "osh": 7239,
      "eds": 7240,
      "ège": 7241,
      "▁try": 7242,
      "▁canton": 7243,
      "▁Arthur": 7244,
      "▁Sous": 7245,
      "▁retra": 7246,
      "▁Depuis": 7247,
      "▁TH": 7248,
      "▁Leon": 7249,
      "▁ball": 7250,
      "▁heure": 7251,
      "cing": 7252,
      "▁associa": 7253,
      "down": 7254,
      "▁Cur": 7255,
      "▁oc": 7256,
      "▁Candidate": 7257,
      "ql": 7258,
      "change": 7259,
      "▁census": 7260,
      "▁Tam": 7261,
      "▁donner": 7262,
      "▁across": 7263,
      "▁étrang": 7264,
      "▁conseil": 7265,
      "aba": 7266,
      "lands": 7267,
      "▁meas": 7268,
      "▁laun": 7269,
      "▁Order": 7270,
      "abled": 7271,
      "▁présence": 7272,
      "▁uno": 7273,
      "nen": 7274,
      "▁aim": 7275,
      "teil": 7276,
      "▁batt": 7277,
      "=\\": 7278,
      "▁media": 7279,
      "▁población": 7280,
      "▁Estados": 7281,
      "Ac": 7282,
      "All": 7283,
      "With": 7284,
      "anté": 7285,
      "itar": 7286,
      "▁less": 7287,
      "alo": 7288,
      "▁Guy": 7289,
      "perties": 7290,
      "\").": 7291,
      "▁haben": 7292,
      "▁Iran": 7293,
      "éricaine": 7294,
      "api": 7295,
      "▁market": 7296,
      "▁provided": 7297,
      "▁vs": 7298,
      "▁consac": 7299,
      "▁ath": 7300,
      "fam": 7301,
      "rige": 7302,
      "▁appr": 7303,
      "atrice": 7304,
      "▁équipes": 7305,
      "uisse": 7306,
      "▁inj": 7307,
      "▁hors": 7308,
      "▁People": 7309,
      "▁countries": 7310,
      "lar": 7311,
      "▁Scot": 7312,
      "ancy": 7313,
      "><": 7314,
      "▁While": 7315,
      "▁graph": 7316,
      "▁discuss": 7317,
      "itié": 7318,
      "(\\": 7319,
      "▁living": 7320,
      "Count": 7321,
      "aste": 7322,
      "core": 7323,
      "▁Arbit": 7324,
      "▁package": 7325,
      "▁patri": 7326,
      "Trans": 7327,
      "utch": 7328,
      "▁Londres": 7329,
      "▁complete": 7330,
      "▁Tal": 7331,
      "▁Brazil": 7332,
      "udi": 7333,
      "▁rich": 7334,
      "dev": 7335,
      "DF": 7336,
      "▁president": 7337,
      "▁élections": 7338,
      "▁Brig": 7339,
      "▁Han": 7340,
      "bers": 7341,
      "quently": 7342,
      "tiva": 7343,
      "▁client": 7344,
      "ogne": 7345,
      "IR": 7346,
      "▁mig": 7347,
      "rin": 7348,
      "▁awarded": 7349,
      "▁Research": 7350,
      "▁LA": 7351,
      "ello": 7352,
      "arning": 7353,
      "▁Cependant": 7354,
      "ufac": 7355,
      "anto": 7356,
      "▁enreg": 7357,
      "▁footballer": 7358,
      "▁Avec": 7359,
      "▁ihr": 7360,
      "▁pic": 7361,
      "▁EP": 7362,
      "▁magazine": 7363,
      "gle": 7364,
      "▁Produc": 7365,
      "▁That": 7366,
      "hol": 7367,
      "▁Um": 7368,
      "▁Ga": 7369,
      "▁pero": 7370,
      "▁Ta": 7371,
      "▁See": 7372,
      "▁honor": 7373,
      "lacement": 7374,
      "▁hyd": 7375,
      "▁está": 7376,
      "▁Hu": 7377,
      "▁network": 7378,
      "▁mean": 7379,
      "inder": 7380,
      "iga": 7381,
      "▁étudi": 7382,
      "▁successful": 7383,
      "▁Nouvelle": 7384,
      "▁hyp": 7385,
      "▁approxim": 7386,
      "▁Premi": 7387,
      "▁sang": 7388,
      "▁whe": 7389,
      "akh": 7390,
      "▁Rev": 7391,
      "▁Sus": 7392,
      "▁Conference": 7393,
      "▁designed": 7394,
      "▁Athle": 7395,
      "▁perman": 7396,
      "▁vent": 7397,
      "▁Lem": 7398,
      "ental": 7399,
      "▁Brad": 7400,
      "▁om": 7401,
      "▁ep": 7402,
      "ähr": 7403,
      "IA": 7404,
      "▁Florida": 7405,
      "▁jeunes": 7406,
      "_v": 7407,
      "▁Municip": 7408,
      "▁Cass": 7409,
      "▁XIX": 7410,
      "obil": 7411,
      "▁asp": 7412,
      "▁té": 7413,
      "▁training": 7414,
      "▁install": 7415,
      "▁médec": 7416,
      "▁look": 7417,
      "▁valeur": 7418,
      "map": 7419,
      "play": 7420,
      "▁bank": 7421,
      "▁Det": 7422,
      "urité": 7423,
      "rand": 7424,
      "▁éche": 7425,
      "adi": 7426,
      "▁pen": 7427,
      "▁Squad": 7428,
      "▁Notes": 7429,
      "▁Bour": 7430,
      "▁Jackson": 7431,
      "abase": 7432,
      "enda": 7433,
      "▁bud": 7434,
      "▁votre": 7435,
      "▁instance": 7436,
      "▁hac": 7437,
      "lon": 7438,
      "▁board": 7439,
      "▁Wales": 7440,
      "Color": 7441,
      "inated": 7442,
      "input": 7443,
      "▁Region": 7444,
      "eno": 7445,
      "ront": 7446,
      "▁->": 7447,
      "▁méth": 7448,
      "▁OR": 7449,
      "▁opposition": 7450,
      "▁Head": 7451,
      "oming": 7452,
      "ropol": 7453,
      "ébec": 7454,
      "ición": 7455,
      "anna": 7456,
      "▁pain": 7457,
      "▁inscrit": 7458,
      "▁Bang": 7459,
      "▁hos": 7460,
      "▁analy": 7461,
      "▁\\\\": 7462,
      "▁sept": 7463,
      "via": 7464,
      "lick": 7465,
      "▁developed": 7466,
      "▁Base": 7467,
      "▁suivant": 7468,
      "▁vu": 7469,
      "▁Semifinals": 7470,
      "▁secret": 7471,
      "▁Finale": 7472,
      "▁Adam": 7473,
      "rif": 7474,
      "schaft": 7475,
      "▁économique": 7476,
      "▁square": 7477,
      "▁Cab": 7478,
      "beit": 7479,
      "color": 7480,
      "▁Steve": 7481,
      "ez": 7482,
      "_N": 7483,
      "iale": 7484,
      "▁conver": 7485,
      "▁strong": 7486,
      "road": 7487,
      "worth": 7488,
      "uil": 7489,
      "▁Valley": 7490,
      "▁tras": 7491,
      "▁condition": 7492,
      "enir": 7493,
      "atholic": 7494,
      "most": 7495,
      "eller": 7496,
      "point": 7497,
      "oria": 7498,
      "roid": 7499,
      "▁chois": 7500,
      "isée": 7501,
      "naire": 7502,
      "ève": 7503,
      "▁Lew": 7504,
      "▁description": 7505,
      "onic": 7506,
      "▁Night": 7507,
      "▁générale": 7508,
      "▁namespace": 7509,
      "▁suo": 7510,
      "ilities": 7511,
      "hard": 7512,
      "▁Geme": 7513,
      "▁Independent": 7514,
      "ently": 7515,
      "irth": 7516,
      "▁na": 7517,
      "▁space": 7518,
      "▁tel": 7519,
      "▁Ainsi": 7520,
      "▁chac": 7521,
      "▁LINE": 7522,
      "osto": 7523,
      "▁Karl": 7524,
      "utton": 7525,
      "▁bra": 7526,
      "▁Victoria": 7527,
      "▁Blanc": 7528,
      "anni": 7529,
      "▁Wik": 7530,
      "▁matéri": 7531,
      "▁experien": 7532,
      "▁Roger": 7533,
      "▁playing": 7534,
      "▁Ori": 7535,
      "scrit": 7536,
      "tiers": 7537,
      "▁Conf": 7538,
      "▁bur": 7539,
      "▁Third": 7540,
      "▁activité": 7541,
      "SC": 7542,
      "ircraft": 7543,
      "orb": 7544,
      "aisse": 7545,
      "▁guer": 7546,
      "Bas": 7547,
      "osse": 7548,
      "▁Anna": 7549,
      "▁Opp": 7550,
      "▁Blo": 7551,
      " est": 7552,
      "▁accue": 7553,
      "▁features": 7554,
      "▁Parl": 7555,
      "▁écriv": 7556,
      "▁entreprise": 7557,
      "▁catég": 7558,
      "illé": 7559,
      "rég": 7560,
      "▁listed": 7561,
      "-.": 7562,
      "▁éner": 7563,
      "riff": 7564,
      "ommen": 7565,
      "▁includes": 7566,
      "▁bless": 7567,
      "▁psych": 7568,
      "upart": 7569,
      "▁finished": 7570,
      "▁Mé": 7571,
      "uce": 7572,
      "rou": 7573,
      "Result": 7574,
      "▁signif": 7575,
      "hood": 7576,
      "▁here": 7577,
      "▁communauté": 7578,
      "▁tut": 7579,
      "dam": 7580,
      "▁plupart": 7581,
      "▁Southern": 7582,
      "tec": 7583,
      "▁dén": 7584,
      "▁Dun": 7585,
      "▁seat": 7586,
      "▁Serv": 7587,
      "▁Mov": 7588,
      "oe": 7589,
      "▁Web": 7590,
      "▁médi": 7591,
      "▁Kaz": 7592,
      "▁Sn": 7593,
      "▁know": 7594,
      "▁britannique": 7595,
      "▁Tw": 7596,
      "create": 7597,
      "osition": 7598,
      "▁Creek": 7599,
      "IE": 7600,
      "ficie": 7601,
      "▁sources": 7602,
      "MA": 7603,
      "▁alt": 7604,
      "▁himself": 7605,
      "▁Comme": 7606,
      "_B": 7607,
      "▁historique": 7608,
      "▁Program": 7609,
      "▁aura": 7610,
      "▁Carlos": 7611,
      "▁Special": 7612,
      "oise": 7613,
      "bres": 7614,
      "▁noch": 7615,
      "▁Verein": 7616,
      "▁×": 7617,
      "▁tir": 7618,
      "ensions": 7619,
      "▁away": 7620,
      "_h": 7621,
      "rip": 7622,
      "▁word": 7623,
      "▁zones": 7624,
      "▁bronze": 7625,
      "▁artist": 7626,
      "▁standard": 7627,
      "▁occupation": 7628,
      "xy": 7629,
      "▁Mann": 7630,
      "Ag": 7631,
      "▁LINEAR": 7632,
      "zer": 7633,
      "▁Palmar": 7634,
      "▁mother": 7635,
      "▁Serb": 7636,
      "▁Gon": 7637,
      "url": 7638,
      "▁résultats": 7639,
      "▁trait": 7640,
      "bro": 7641,
      "▁river": 7642,
      "▁Claude": 7643,
      "eux": 7644,
      "▁able": 7645,
      "▁confirm": 7646,
      "▁effectu": 7647,
      "▁opin": 7648,
      "asons": 7649,
      "▁ctx": 7650,
      "üd": 7651,
      "▁Real": 7652,
      "ureau": 7653,
      "▁Government": 7654,
      "▁Of": 7655,
      "▁Rég": 7656,
      "oxy": 7657,
      "chte": 7658,
      "▁vois": 7659,
      "ailles": 7660,
      "oon": 7661,
      "▁Madrid": 7662,
      "▁magn": 7663,
      "▁originally": 7664,
      "▁Ball": 7665,
      "stad": 7666,
      "▁hard": 7667,
      "Pierre": 7668,
      "▁future": 7669,
      "aco": 7670,
      "▁Andrew": 7671,
      "ML": 7672,
      "▁unit": 7673,
      "ns": 7674,
      "▁Ru": 7675,
      "▁intérêt": 7676,
      "▁box": 7677,
      "RC": 7678,
      ")}": 7679,
      "▁évolution": 7680,
      "▁dial": 7681,
      "▁added": 7682,
      "used": 7683,
      "▁never": 7684,
      "▁NULL": 7685,
      "▁Charl": 7686,
      "ouest": 7687,
      "▁though": 7688,
      "▁quin": 7689,
      "▁household": 7690,
      "////////////////": 7691,
      "▁performed": 7692,
      "▁honneur": 7693,
      "▁suivante": 7694,
      "▁Esc": 7695,
      "▁Ier": 7696,
      "▁directeur": 7697,
      "][": 7698,
      "emory": 7699,
      "▁interface": 7700,
      "itan": 7701,
      "▁positions": 7702,
      "▁cheval": 7703,
      "▁prot": 7704,
      "▁Plan": 7705,
      "▁publié": 7706,
      "▁Bow": 7707,
      "▁miss": 7708,
      "▁tempor": 7709,
      "▁saint": 7710,
      "▁white": 7711,
      "▁plut": 7712,
      "▁currently": 7713,
      "lib": 7714,
      "▁Battle": 7715,
      "etto": 7716,
      "ultat": 7717,
      "▁players": 7718,
      "▁participe": 7719,
      "▁réseau": 7720,
      "▁remporte": 7721,
      "▁SS": 7722,
      "▁encuent": 7723,
      "▁Kur": 7724,
      "▁Conc": 7725,
      "▁vom": 7726,
      "▁durante": 7727,
      "▁Fig": 7728,
      "▁distribution": 7729,
      "oca": 7730,
      "▁Color": 7731,
      "▁clubs": 7732,
      "▁destin": 7733,
      "uni": 7734,
      "uki": 7735,
      "har": 7736,
      "▁Syd": 7737,
      "eren": 7738,
      "▁aucune": 7739,
      "▁sélection": 7740,
      "▁espèces": 7741,
      "▁Bat": 7742,
      "TV": 7743,
      "As": 7744,
      "ingt": 7745,
      "▁puede": 7746,
      "ails": 7747,
      "▁vou": 7748,
      "▁Spacewatch": 7749,
      "▁invest": 7750,
      "▁Place": 7751,
      "▁natural": 7752,
      "▁Israel": 7753,
      "▁values": 7754,
      "▁effic": 7755,
      "▁Équipe": 7756,
      "▁Ay": 7757,
      "▁Ty": 7758,
      "ustry": 7759,
      "▁Mik": 7760,
      "▁évol": 7761,
      "onda": 7762,
      "ío": 7763,
      "üss": 7764,
      "▁railway": 7765,
      "▁\"\"\"": 7766,
      "aught": 7767,
      "▁Live": 7768,
      "▁health": 7769,
      "▁Week": 7770,
      "▁bomb": 7771,
      "▁chanson": 7772,
      "▁Deutsch": 7773,
      "▁((": 7774,
      "▁parent": 7775,
      "▁mieux": 7776,
      "rak": 7777,
      "OG": 7778,
      "▁fact": 7779,
      "▁Show": 7780,
      "ías": 7781,
      "▁Québec": 7782,
      "dis": 7783,
      "▁Bien": 7784,
      "▁Ky": 7785,
      "istem": 7786,
      "▁indépend": 7787,
      "▁scientif": 7788,
      "▁initial": 7789,
      "mission": 7790,
      "quête": 7791,
      "▁doivent": 7792,
      "antage": 7793,
      "▁Quarterfinals": 7794,
      "chedule": 7795,
      "▁Engine": 7796,
      "▁repro": 7797,
      "▁already": 7798,
      "rison": 7799,
      "_L": 7800,
      "▁premières": 7801,
      "▁nation": 7802,
      "▁MP": 7803,
      "isters": 7804,
      "onym": 7805,
      "################": 7806,
      "▁elections": 7807,
      "▁Enter": 7808,
      "▁Sel": 7809,
      "null": 7810,
      "del": 7811,
      "▁past": 7812,
      "▁brother": 7813,
      "▁comte": 7814,
      "▁dirig": 7815,
      "▁Kam": 7816,
      "▁Ot": 7817,
      "▁reported": 7818,
      "?:": 7819,
      "▁column": 7820,
      "▁lac": 7821,
      "▁Water": 7822,
      "▁Chine": 7823,
      "▁Poland": 7824,
      "bus": 7825,
      "▁naturel": 7826,
      "ylvan": 7827,
      "▁frère": 7828,
      "▁épouse": 7829,
      "TS": 7830,
      "▁volume": 7831,
      "▁metres": 7832,
      "▁quo": 7833,
      "tification": 7834,
      "▁Majority": 7835,
      "elled": 7836,
      "ketball": 7837,
      "▁vice": 7838,
      "▁address": 7839,
      "▁Ess": 7840,
      "icos": 7841,
      "▁Tot": 7842,
      "seud": 7843,
      "zeich": 7844,
      "▁hu": 7845,
      "▁Walter": 7846,
      "▁aber": 7847,
      "error": 7848,
      "▁ja": 7849,
      "rated": 7850,
      "▁Ban": 7851,
      "▁ul": 7852,
      "▁ait": 7853,
      "▁législa": 7854,
      "▁say": 7855,
      "▁writing": 7856,
      "▁Junior": 7857,
      "▁wurden": 7858,
      "cal": 7859,
      "▁laiss": 7860,
      "tile": 7861,
      "▁fab": 7862,
      "side": 7863,
      "▁Silver": 7864,
      "▁Zeit": 7865,
      "YP": 7866,
      "▁spir": 7867,
      "(){": 7868,
      "heast": 7869,
      "▁tem": 7870,
      "▁VF": 7871,
      "▁»,": 7872,
      "▁Hab": 7873,
      "▁bataille": 7874,
      "▁appeared": 7875,
      "overs": 7876,
      "roph": 7877,
      "sec": 7878,
      "äl": 7879,
      "▁specific": 7880,
      "▁mine": 7881,
      "uire": 7882,
      "enna": 7883,
      "avy": 7884,
      "tiller": 7885,
      "uela": 7886,
      "inen": 7887,
      "▁Dal": 7888,
      "rimés": 7889,
      "_data": 7890,
      "nelle": 7891,
      "▁although": 7892,
      "▁Slov": 7893,
      "▁Season": 7894,
      "▁educ": 7895,
      "▁Ö": 7896,
      "▁dic": 7897,
      "▁Mig": 7898,
      "amos": 7899,
      "▁procéd": 7900,
      "▁Meille": 7901,
      "▁cui": 7902,
      "args": 7903,
      "▁nuc": 7904,
      "▁Na": 7905,
      "▁matches": 7906,
      "▁musical": 7907,
      "izer": 7908,
      "iat": 7909,
      "▁statis": 7910,
      "▁Fel": 7911,
      "itude": 7912,
      "asser": 7913,
      "toine": 7914,
      "▁Chart": 7915,
      "▁contro": 7916,
      "▁loss": 7917,
      "▁Luis": 7918,
      "▁provin": 7919,
      "▁espace": 7920,
      "tations": 7921,
      "▁cad": 7922,
      "array": 7923,
      "burgh": 7924,
      "inson": 7925,
      "inde": 7926,
      "O_": 7927,
      "wischen": 7928,
      "bury": 7929,
      "▁minim": 7930,
      "▁enfant": 7931,
      "term": 7932,
      ".),": 7933,
      "▁forma": 7934,
      "rel": 7935,
      "▁marché": 7936,
      "glich": 7937,
      "fica": 7938,
      "▁Director": 7939,
      "▁Down": 7940,
      "TR": 7941,
      "CE": 7942,
      "▁load": 7943,
      "ablement": 7944,
      "▁fémin": 7945,
      "▁sea": 7946,
      "öl": 7947,
      "èrement": 7948,
      "▁italien": 7949,
      "anced": 7950,
      "▁rév": 7951,
      "alités": 7952,
      "▁outs": 7953,
      "Acc": 7954,
      "^,^,.$": 7955,
      "▁intérieur": 7956,
      "▁loin": 7957,
      "aps": 7958,
      "▁Drag": 7959,
      "▁instrument": 7960,
      "quence": 7961,
      "▁Data": 7962,
      "ured": 7963,
      "▁Kel": 7964,
      "▁applic": 7965,
      "▁ground": 7966,
      "▁ID": 7967,
      "▁copy": 7968,
      "▁Fol": 7969,
      "▁exté": 7970,
      "▁Mir": 7971,
      "▁Township": 7972,
      "▁nue": 7973,
      "éma": 7974,
      "▁foot": 7975,
      "▁passage": 7976,
      "▁doute": 7977,
      "vas": 7978,
      "uccess": 7979,
      "▁attention": 7980,
      "▁Ses": 7981,
      "▁Ep": 7982,
      "▁fight": 7983,
      "▁Kol": 7984,
      "▁pén": 7985,
      "▁plant": 7986,
      "▁voie": 7987,
      "▁Since": 7988,
      "▁existence": 7989,
      "▁autant": 7990,
      "▁dél": 7991,
      "▁lesqu": 7992,
      "uba": 7993,
      "▁plutôt": 7994,
      "anza": 7995,
      "▁squad": 7996,
      "▁Taylor": 7997,
      "ètre": 7998,
      "▁Entre": 7999,
      "ogle": 8000,
      "▁Dies": 8001,
      "▁Péri": 8002,
      "▁Ukraine": 8003,
      "quant": 8004,
      "▁exhib": 8005,
      "▁créé": 8006,
      "umi": 8007,
      "weg": 8008,
      "▁Lud": 8009,
      "pite": 8010,
      "ué": 8011,
      "emos": 8012,
      "▁row": 8013,
      "érations": 8014,
      "▁Most": 8015,
      "▁pie": 8016,
      "▁répond": 8017,
      "version": 8018,
      "▁vocals": 8019,
      "▁anc": 8020,
      "▁heures": 8021,
      "▁defined": 8022,
      "▁propor": 8023,
      "▁questions": 8024,
      "▁months": 8025,
      "ffic": 8026,
      "▁groupes": 8027,
      "▁Nomin": 8028,
      "▁victoire": 8029,
      "▁expected": 8030,
      "▁contains": 8031,
      "▁cele": 8032,
      "▁Cet": 8033,
      "▁goal": 8034,
      "▁éléments": 8035,
      "▁Nicolas": 8036,
      "▁directed": 8037,
      "Input": 8038,
      "max": 8039,
      "▁actions": 8040,
      "aaaa": 8041,
      "▁Notre": 8042,
      "PL": 8043,
      "▁Jacob": 8044,
      "▁fuer": 8045,
      "▁usage": 8046,
      "▁ign": 8047,
      "▁cann": 8048,
      "▁étend": 8049,
      "emblée": 8050,
      "▁intégr": 8051,
      "▁Sig": 8052,
      "▁phase": 8053,
      "ologiques": 8054,
      "▁lorsqu": 8055,
      "▁conna": 8056,
      "▁Pak": 8057,
      "rei": 8058,
      "▁prod": 8059,
      "▁Queen": 8060,
      "ов": 8061,
      "oz": 8062,
      "▁leader": 8063,
      "▁groups": 8064,
      "▁analys": 8065,
      "bell": 8066,
      "▁Suisse": 8067,
      "ttps": 8068,
      "▁théâtre": 8069,
      "istic": 8070,
      "▁CC": 8071,
      "kl": 8072,
      "▁visit": 8073,
      "▁remained": 8074,
      "▁GL": 8075,
      "mir": 8076,
      "The": 8077,
      "▁Brook": 8078,
      "▁songs": 8079,
      "dem": 8080,
      "▁serie": 8081,
      "▁Inscrit": 8082,
      "▁AL": 8083,
      "tellig": 8084,
      "▁Eliz": 8085,
      "▁Président": 8086,
      "Property": 8087,
      "onte": 8088,
      "imiento": 8089,
      "▁utiliz": 8090,
      "Rec": 8091,
      "▁commercial": 8092,
      "▁Alfred": 8093,
      "▁CS": 8094,
      "etta": 8095,
      "▁municipality": 8096,
      "▁Tony": 8097,
      "▁utilisé": 8098,
      "▁entr": 8099,
      "▁seven": 8100,
      "arr": 8101,
      "▁noir": 8102,
      "▁produits": 8103,
      "▁decl": 8104,
      "äsident": 8105,
      "▁dieser": 8106,
      "▁Gesch": 8107,
      "gos": 8108,
      "▁administrative": 8109,
      "▁least": 8110,
      "▁parts": 8111,
      "▁enfin": 8112,
      "stan": 8113,
      "▁editor": 8114,
      "▁Italia": 8115,
      "▁selected": 8116,
      "▁AD": 8117,
      "ging": 8118,
      "▁mehr": 8119,
      "▁Light": 8120,
      "äch": 8121,
      "▁degree": 8122,
      "▁sépar": 8123,
      "html": 8124,
      "▁vient": 8125,
      "oration": 8126,
      "ouch": 8127,
      "Inter": 8128,
      "Des": 8129,
      "Over": 8130,
      "▁musée": 8131,
      "▁protest": 8132,
      "▁Télé": 8133,
      "▁Jane": 8134,
      "▁job": 8135,
      "▁Irish": 8136,
      "lez": 8137,
      "],[": 8138,
      "▁constitution": 8139,
      "▁américaine": 8140,
      "▁pourrait": 8141,
      "▁Som": 8142,
      "▁spor": 8143,
      "▁options": 8144,
      "pin": 8145,
      "▁Lyon": 8146,
      "otto": 8147,
      "▁paint": 8148,
      "ubic": 8149,
      "▁espagn": 8150,
      "▁Sund": 8151,
      " l": 8152,
      "▁Mess": 8153,
      "cien": 8154,
      "▁gew": 8155,
      "▁Rol": 8156,
      " ans": 8157,
      "▁Frances": 8158,
      "ulé": 8159,
      "▁entire": 8160,
      "aven": 8161,
      "ondissement": 8162,
      "▁Wilson": 8163,
      "▁presque": 8164,
      "rá": 8165,
      "▁Initi": 8166,
      "▁followed": 8167,
      "▁indust": 8168,
      "▁marque": 8169,
      "▁Qualif": 8170,
      "▁Bronze": 8171,
      "iy": 8172,
      "▁Gran": 8173,
      "Manager": 8174,
      "▁Alg": 8175,
      "ismo": 8176,
      "▁Catholic": 8177,
      "▁Ohio": 8178,
      "▁Eric": 8179,
      "▁tiene": 8180,
      "▁await": 8181,
      "▁XVIII": 8182,
      "ottom": 8183,
      "▁articles": 8184,
      " E": 8185,
      "▁radi": 8186,
      "Query": 8187,
      "▁sig": 8188,
      "uma": 8189,
      "▁maje": 8190,
      "▁Sydney": 8191,
      "▁Kre": 8192,
      "ategor": 8193,
      "▁individual": 8194,
      "▁union": 8195,
      "▁episode": 8196,
      "▁Report": 8197,
      "▁Ric": 8198,
      "rado": 8199,
      "▁ax": 8200,
      "▁Board": 8201,
      "▁frag": 8202,
      "▁contrôle": 8203,
      "▁conj": 8204,
      "▁destroy": 8205,
      "▁terrain": 8206,
      "▁interest": 8207,
      "uilder": 8208,
      "▁gir": 8209,
      "▁sociale": 8210,
      "▁Fri": 8211,
      "uda": 8212,
      "▁Acad": 8213,
      "▁Vot": 8214,
      "▁gave": 8215,
      "lément": 8216,
      "▁ouvrage": 8217,
      "omes": 8218,
      "aret": 8219,
      "▁park": 8220,
      "▁SR": 8221,
      "idades": 8222,
      "▁java": 8223,
      "▁pes": 8224,
      "offs": 8225,
      "fait": 8226,
      "▁justice": 8227,
      "▁focus": 8228,
      "▁neigh": 8229,
      "▁réd": 8230,
      "Table": 8231,
      "▁Bec": 8232,
      "▁involved": 8233,
      "undo": 8234,
      "▁chemin": 8235,
      "▁kilomet": 8236,
      "▁Administ": 8237,
      "▁link": 8238,
      "▁fus": 8239,
      "▁Tak": 8240,
      "▁epis": 8241,
      "▁lut": 8242,
      "▁Statis": 8243,
      "usement": 8244,
      "▁Vis": 8245,
      "▁chart": 8246,
      "▁Vor": 8247,
      "▁contract": 8248,
      "▁Eug": 8249,
      "forme": 8250,
      "▁CON": 8251,
      "▁expression": 8252,
      "Uni": 8253,
      "▁participation": 8254,
      "ancial": 8255,
      "▁issues": 8256,
      "▁professeur": 8257,
      "▁gold": 8258,
      "▁Medal": 8259,
      "owa": 8260,
      "anges": 8261,
      "▁Michigan": 8262,
      "▁publique": 8263,
      "▁achie": 8264,
      "▁cual": 8265,
      "▁pel": 8266,
      "▁option": 8267,
      "▁méc": 8268,
      "▁Toul": 8269,
      "emorial": 8270,
      "▁buildings": 8271,
      "▁Trois": 8272,
      "atherine": 8273,
      "▁défense": 8274,
      "führ": 8275,
      "ffer": 8276,
      "ediate": 8277,
      "▁sel": 8278,
      "▁idée": 8279,
      "▁probab": 8280,
      "▁aliment": 8281,
      "itage": 8282,
      "_r": 8283,
      "gesch": 8284,
      "px": 8285,
      "▁obtient": 8286,
      "ilton": 8287,
      "▁orchest": 8288,
      "▁hé": 8289,
      "▁Occ": 8290,
      "_a": 8291,
      "▁study": 8292,
      "▁mètres": 8293,
      "▁trouver": 8294,
      "▁prépar": 8295,
      "glied": 8296,
      "▁campaign": 8297,
      "▁Alber": 8298,
      "▁appara": 8299,
      "arp": 8300,
      "▁interm": 8301,
      "▁Develop": 8302,
      "chema": 8303,
      "tant": 8304,
      "lik": 8305,
      "asing": 8306,
      "defined": 8307,
      "uste": 8308,
      "▁Table": 8309,
      "▁lum": 8310,
      "▁répar": 8311,
      "▁féd": 8312,
      "▁Nam": 8313,
      "▁Child": 8314,
      "▁Code": 8315,
      "lying": 8316,
      "▁Points": 8317,
      "▁Nick": 8318,
      "owers": 8319,
      "▁gegen": 8320,
      "nah": 8321,
      "atif": 8322,
      "▁corre": 8323,
      "▁vidéo": 8324,
      "▁implement": 8325,
      "▁provide": 8326,
      "▁Giov": 8327,
      "▁urb": 8328,
      "▁eight": 8329,
      "aled": 8330,
      "ills": 8331,
      "▁mac": 8332,
      "icia": 8333,
      "mm": 8334,
      "idas": 8335,
      "▁upon": 8336,
      "Date": 8337,
      "▁años": 8338,
      "▁Distribution": 8339,
      "▁sols": 8340,
      "▁ti": 8341,
      "▁Tai": 8342,
      "▁Plat": 8343,
      "▁internationale": 8344,
      "chaf": 8345,
      "endance": 8346,
      "▁Gabri": 8347,
      "]);": 8348,
      "▁fall": 8349,
      "▁Pav": 8350,
      "▁leading": 8351,
      "No": 8352,
      "ierung": 8353,
      "ogen": 8354,
      "********************************": 8355,
      "▁nouveaux": 8356,
      "ymn": 8357,
      "▁cm": 8358,
      "▁Vill": 8359,
      "Equal": 8360,
      "▁quartier": 8361,
      "▁expect": 8362,
      "étique": 8363,
      "▁Fem": 8364,
      "▁Railway": 8365,
      "▁x_": 8366,
      "▁corn": 8367,
      "▁arrê": 8368,
      "▁ache": 8369,
      "taining": 8370,
      "▁Bund": 8371,
      "▁calc": 8372,
      "onents": 8373,
      "▁Jord": 8374,
      "▁Bridge": 8375,
      "▁actual": 8376,
      "▁matière": 8377,
      "▁args": 8378,
      "▁Nar": 8379,
      "lags": 8380,
      "▁som": 8381,
      "▁Harry": 8382,
      "ouri": 8383,
      "▁prév": 8384,
      "▁Ka": 8385,
      "▁genus": 8386,
      "linois": 8387,
      "▁border": 8388,
      "▁images": 8389,
      "iform": 8390,
      "▁Mach": 8391,
      "▁taux": 8392,
      "Component": 8393,
      "▁Elizabeth": 8394,
      "oyen": 8395,
      "▁envoy": 8396,
      "▁Minn": 8397,
      "weight": 8398,
      "olar": 8399,
      "▁store": 8400,
      "▁Mes": 8401,
      "▁Congress": 8402,
      "From": 8403,
      "▁hasta": 8404,
      "▁marzo": 8405,
      "▁monument": 8406,
      "'.": 8407,
      "auer": 8408,
      "▁Parlement": 8409,
      "▁Oliv": 8410,
      "▁Pacific": 8411,
      "▁outre": 8412,
      "lète": 8413,
      "▁modèle": 8414,
      "▁determin": 8415,
      "▁japon": 8416,
      "▁policy": 8417,
      "▁Unter": 8418,
      "▁Circ": 8419,
      "▁ara": 8420,
      "ammen": 8421,
      "▁entrée": 8422,
      "▁significant": 8423,
      "▁proté": 8424,
      "anno": 8425,
      "ashi": 8426,
      "▁rivière": 8427,
      "▁Maurice": 8428,
      "Def": 8429,
      "▁Rub": 8430,
      "▁rouge": 8431,
      "ds": 8432,
      "▁symbol": 8433,
      "▁relation": 8434,
      "▁particulièrement": 8435,
      "chant": 8436,
      "▁bene": 8437,
      "yes": 8438,
      "H_": 8439,
      "ESS": 8440,
      "▁Pot": 8441,
      "▁eran": 8442,
      "D_": 8443,
      "▁Ron": 8444,
      "iage": 8445,
      "▁subse": 8446,
      "▁Marsh": 8447,
      "▁Point": 8448,
      "▁Ach": 8449,
      "ñor": 8450,
      "▁details": 8451,
      "▁mét": 8452,
      "▁Tu": 8453,
      "▁Dig": 8454,
      "▁farm": 8455,
      "▁host": 8456,
      "▁too": 8457,
      "uay": 8458,
      "▁replaced": 8459,
      "▁démocra": 8460,
      "▁Riv": 8461,
      "▁commerce": 8462,
      "▁Sans": 8463,
      "book": 8464,
      "▁télévis": 8465,
      "X_": 8466,
      "▁Catal": 8467,
      "▁esprit": 8468,
      "inary": 8469,
      "▁degli": 8470,
      "▁Nation": 8471,
      "▁===": 8472,
      "{$": 8473,
      "uros": 8474,
      "▁Illinois": 8475,
      "▁Australie": 8476,
      "▁Britain": 8477,
      "▁Né": 8478,
      "rief": 8479,
      "▁ciudad": 8480,
      "▁Jam": 8481,
      "▁dessin": 8482,
      "▁places": 8483,
      "▁friend": 8484,
      "▁dedic": 8485,
      "\"`": 8486,
      "▁primary": 8487,
      "UP": 8488,
      "▁src": 8489,
      "▁sciences": 8490,
      "▁desde": 8491,
      "eda": 8492,
      "_to": 8493,
      "esti": 8494,
      "▁recomm": 8495,
      "ettes": 8496,
      "▁russe": 8497,
      "▁bonne": 8498,
      "▁cris": 8499,
      "▁nécessaire": 8500,
      "▁Pré": 8501,
      "▁Schw": 8502,
      "elling": 8503,
      "issements": 8504,
      "amo": 8505,
      "▁Sea": 8506,
      "feld": 8507,
      "ested": 8508,
      "▁disput": 8509,
      "▁passé": 8510,
      "▁centrale": 8511,
      "▁veut": 8512,
      "ding": 8513,
      "lare": 8514,
      "▁wood": 8515,
      "unter": 8516,
      "▁Eastern": 8517,
      "arned": 8518,
      "▁éto": 8519,
      "vor": 8520,
      "moins": 8521,
      "▁Olympics": 8522,
      "▁Office": 8523,
      "▁Loc": 8524,
      "es ": 8525,
      "▁tels": 8526,
      "ität": 8527,
      "grad": 8528,
      "▁bibli": 8529,
      "▁Georgia": 8530,
      "▁Lady": 8531,
      "cesse": 8532,
      "▁sit": 8533,
      "▁closed": 8534,
      "▁championship": 8535,
      "▁manager": 8536,
      "▁critique": 8537,
      "▁Mand": 8538,
      "▁sécurité": 8539,
      "▁signal": 8540,
      "▁Ober": 8541,
      "utation": 8542,
      "bourne": 8543,
      "▁Ü": 8544,
      "▁Baron": 8545,
      "▁chem": 8546,
      "▁Palmarès": 8547,
      "▁sov": 8548,
      "▁means": 8549,
      "▁principalement": 8550,
      "▁Wer": 8551,
      "▁effect": 8552,
      "▁schools": 8553,
      "▁chante": 8554,
      "▁soul": 8555,
      "▁Scotland": 8556,
      "ivement": 8557,
      "▁ec": 8558,
      "▁contraire": 8559,
      "illo": 8560,
      "▁Key": 8561,
      "▁Yam": 8562,
      "ésil": 8563,
      "▁Stock": 8564,
      "orsch": 8565,
      "▁medal": 8566,
      "arse": 8567,
      "CA": 8568,
      "▁Korea": 8569,
      "df": 8570,
      "oupes": 8571,
      "▁Ni": 8572,
      "▁originale": 8573,
      "▁Return": 8574,
      "▁Brand": 8575,
      "doc": 8576,
      "▁gare": 8577,
      "ouvre": 8578,
      "▁Hot": 8579,
      "▁Power": 8580,
      "▁seen": 8581,
      "width": 8582,
      "▁Hou": 8583,
      "oring": 8584,
      "aper": 8585,
      "▁Pit": 8586,
      "▁finish": 8587,
      "énom": 8588,
      "▁construit": 8589,
      "▁Coast": 8590,
      "▁killed": 8591,
      "▁Columbia": 8592,
      "▁kg": 8593,
      "▁ble": 8594,
      "parti": 8595,
      "▁display": 8596,
      "▁boolean": 8597,
      "unal": 8598,
      "▁lance": 8599,
      "▁Comisión": 8600,
      "And": 8601,
      "lat": 8602,
      "▁Naz": 8603,
      "enh": 8604,
      "▁sowie": 8605,
      "▁personal": 8606,
      "▁organiz": 8607,
      "▁inaug": 8608,
      "▁telle": 8609,
      "▁runs": 8610,
      "▁lower": 8611,
      "▁throughout": 8612,
      "sa": 8613,
      "▁Oxford": 8614,
      "▁Assembly": 8615,
      "▁Jes": 8616,
      "▁Stephen": 8617,
      "ña": 8618,
      "▁Nat": 8619,
      "rot": 8620,
      "UM": 8621,
      "▁attribu": 8622,
      "tik": 8623,
      "▁cir": 8624,
      "▁Chev": 8625,
      "▁Rand": 8626,
      "▁imag": 8627,
      "▁consist": 8628,
      "▁réun": 8629,
      "▁Theatre": 8630,
      "▁anni": 8631,
      "▁départ": 8632,
      "▁Penns": 8633,
      "▁Classement": 8634,
      "ografía": 8635,
      "▁Š": 8636,
      "ypes": 8637,
      "▁hockey": 8638,
      "▁Nations": 8639,
      "▁hau": 8640,
      "▁Pil": 8641,
      "▁Monte": 8642,
      "▁Cin": 8643,
      "▁dirige": 8644,
      "▁École": 8645,
      "▁Austria": 8646,
      "▁gens": 8647,
      "gas": 8648,
      "▁kön": 8649,
      "▁diam": 8650,
      "GC": 8651,
      "▁trab": 8652,
      "umin": 8653,
      "▁Europä": 8654,
      "▁care": 8655,
      "▁Kos": 8656,
      "TER": 8657,
      "▁scén": 8658,
      "▁fail": 8659,
      "▁Sym": 8660,
      "▁Nag": 8661,
      "▁environment": 8662,
      "▁rule": 8663,
      "▁promotion": 8664,
      "▁affaires": 8665,
      "▁plans": 8666,
      "▁failed": 8667,
      "uster": 8668,
      "rate": 8669,
      "▁Brian": 8670,
      "dent": 8671,
      "▁sy": 8672,
      "anga": 8673,
      "▁prince": 8674,
      "Sub": 8675,
      "▁classement": 8676,
      "▁comprend": 8677,
      "▁running": 8678,
      "▁Econom": 8679,
      "loss": 8680,
      "anes": 8681,
      "▁polí": 8682,
      "▁país": 8683,
      "ithub": 8684,
      "▁protected": 8685,
      "▁œuvres": 8686,
      "▁Pin": 8687,
      "▁distin": 8688,
      "▁Corpor": 8689,
      "adelph": 8690,
      "▁merc": 8691,
      "%%%%%%%%": 8692,
      "▁généralement": 8693,
      "▁Dol": 8694,
      "▁clear": 8695,
      "▁multip": 8696,
      "▁villes": 8697,
      "').": 8698,
      "▁Pennsylvan": 8699,
      "▁southern": 8700,
      "arde": 8701,
      "▁instead": 8702,
      "ultural": 8703,
      "▁ho": 8704,
      "ouble": 8705,
      "▁Bass": 8706,
      "▁semi": 8707,
      "arios": 8708,
      "▁labor": 8709,
      "▁Lac": 8710,
      "▁Hart": 8711,
      "▁Toronto": 8712,
      "erts": 8713,
      "draw": 8714,
      "▁represented": 8715,
      "▁Py": 8716,
      "_pro": 8717,
      "▁somm": 8718,
      "▁Lewis": 8719,
      "bil": 8720,
      "illaume": 8721,
      "▁island": 8722,
      "▁béné": 8723,
      "omètres": 8724,
      "iri": 8725,
      "i ": 8726,
      "▁rural": 8727,
      "▁Motors": 8728,
      "▁||||||": 8729,
      "▁Kevin": 8730,
      "TION": 8731,
      "▁consul": 8732,
      "fit": 8733,
      "▁college": 8734,
      "▁environnement": 8735,
      "▁Davis": 8736,
      "▁référence": 8737,
      "▁soll": 8738,
      "▁sistem": 8739,
      "▁matchs": 8740,
      "oue": 8741,
      "▁activités": 8742,
      "▁Pé": 8743,
      "quée": 8744,
      "▁Wat": 8745,
      "▁problème": 8746,
      "▁duc": 8747,
      "▁épisodes": 8748,
      "wig": 8749,
      "▁custom": 8750,
      "▁sortie": 8751,
      "▁northern": 8752,
      "▁pièces": 8753,
      "▁Mak": 8754,
      "▁fish": 8755,
      "quier": 8756,
      "▁hy": 8757,
      "▁Middle": 8758,
      "▁quarter": 8759,
      "▁Wall": 8760,
      "▁Rose": 8761,
      "▁discip": 8762,
      "▁finalement": 8763,
      "▁maire": 8764,
      "▁cred": 8765,
      "▁passer": 8766,
      "▁your": 8767,
      "▁Dre": 8768,
      "▁reach": 8769,
      "▁occident": 8770,
      "arian": 8771,
      "ocol": 8772,
      "▁goals": 8773,
      "▁mess": 8774,
      "▁cham": 8775,
      "▁units": 8776,
      "▁vall": 8777,
      "▁previously": 8778,
      "▁PP": 8779,
      "▁placed": 8780,
      "▁fourth": 8781,
      "▁Broad": 8782,
      "▁CA": 8783,
      "]{": 8784,
      "oved": 8785,
      "▁Soviet": 8786,
      "tera": 8787,
      "bec": 8788,
      "emment": 8789,
      "▁rendre": 8790,
      "▁techniques": 8791,
      "▁~": 8792,
      "dessus": 8793,
      "ersey": 8794,
      "▁establish": 8795,
      "ović": 8796,
      "▁Raj": 8797,
      "▁featured": 8798,
      "▁dispon": 8799,
      "Point": 8800,
      "▁Rud": 8801,
      " min": 8802,
      "actions": 8803,
      "eler": 8804,
      "▁shift": 8805,
      "▁Mount": 8806,
      "▁DVD": 8807,
      "onné": 8808,
      "ierra": 8809,
      "riche": 8810,
      "ifications": 8811,
      "▁détr": 8812,
      "lease": 8813,
      "▁communication": 8814,
      "result": 8815,
      "▁account": 8816,
      "▁contrat": 8817,
      "▁amour": 8818,
      "▁verb": 8819,
      "▁Justice": 8820,
      "onique": 8821,
      "▁decision": 8822,
      "▁auprès": 8823,
      "Ph": 8824,
      "▁personnel": 8825,
      "▁Tokyo": 8826,
      "bin": 8827,
      "▁santé": 8828,
      "▁done": 8829,
      "▁Bah": 8830,
      "▁respect": 8831,
      "▁ling": 8832,
      "ea": 8833,
      "▁appelé": 8834,
      "rian": 8835,
      "▁faisant": 8836,
      "▁shows": 8837,
      "ían": 8838,
      "EP": 8839,
      "▁Times": 8840,
      "éroï": 8841,
      "▁Neth": 8842,
      "▁vac": 8843,
      "▁diffus": 8844,
      "ondo": 8845,
      "▁Français": 8846,
      "▁rais": 8847,
      "▁Magn": 8848,
      "oft": 8849,
      "▁Lis": 8850,
      "Wind": 8851,
      "▁Wel": 8852,
      "Char": 8853,
      "▁discover": 8854,
      "▁han": 8855,
      "rap": 8856,
      "▁ya": 8857,
      "K_": 8858,
      "▁quant": 8859,
      "▁Kat": 8860,
      "▁vin": 8861,
      "▁Production": 8862,
      "▁urban": 8863,
      "éries": 8864,
      "▁ca": 8865,
      "▁catch": 8866,
      "▁entry": 8867,
      "▁Merc": 8868,
      "▁peintre": 8869,
      "▁height": 8870,
      " d": 8871,
      "%),": 8872,
      "ciones": 8873,
      "neur": 8874,
      "▁Historic": 8875,
      "▁Rap": 8876,
      "▁deal": 8877,
      "erlands": 8878,
      "Options": 8879,
      "▁rapidement": 8880,
      "▁whose": 8881,
      "▁Build": 8882,
      "▁aircraft": 8883,
      "▁books": 8884,
      "Ass": 8885,
      " habitants": 8886,
      "▁pati": 8887,
      "▁européen": 8888,
      "▁manufac": 8889,
      "▁seigneur": 8890,
      "▁except": 8891,
      "▁fonc": 8892,
      "zh": 8893,
      "▁difficult": 8894,
      "▁Freder": 8895,
      "▁terms": 8896,
      "▁Gord": 8897,
      "▁chron": 8898,
      "▁Review": 8899,
      "▁tempér": 8900,
      "▁año": 8901,
      "▁publication": 8902,
      "▁rad": 8903,
      "rm": 8904,
      "▁Iv": 8905,
      "▁Corps": 8906,
      "hors": 8907,
      "▁diese": 8908,
      "▁Last": 8909,
      "▁Herm": 8910,
      "▁catal": 8911,
      "▁Marcel": 8912,
      "▁families": 8913,
      "quie": 8914,
      "▁sites": 8915,
      "▁nuit": 8916,
      "hyper": 8917,
      "▁Dim": 8918,
      "allenge": 8919,
      "contr": 8920,
      "▁tab": 8921,
      "▁Note": 8922,
      "▁largest": 8923,
      "▁json": 8924,
      "zioni": 8925,
      "mis": 8926,
      "▁municipio": 8927,
      "▁Cu": 8928,
      "▁Dém": 8929,
      "▁Anthony": 8930,
      "loat": 8931,
      "▁dise": 8932,
      "indre": 8933,
      "▁Goals": 8934,
      "▁session": 8935,
      "▁fif": 8936,
      "▁coast": 8937,
      "aturing": 8938,
      "teen": 8939,
      "▁acteur": 8940,
      "▁Sor": 8941,
      "has": 8942,
      "▁pont": 8943,
      "▁seront": 8944,
      "tero": 8945,
      "▁Asia": 8946,
      "▁normal": 8947,
      "▁Musée": 8948,
      "▁accompagn": 8949,
      "\":\"": 8950,
      "▁changed": 8951,
      "▁Golden": 8952,
      "sson": 8953,
      "▁below": 8954,
      "▁reçoit": 8955,
      "▁qualité": 8956,
      "opy": 8957,
      "▁Geb": 8958,
      "▁feder": 8959,
      "PN": 8960,
      "Lo": 8961,
      "▁Vit": 8962,
      "utions": 8963,
      "▁élu": 8964,
      "▁évén": 8965,
      "occ": 8966,
      "▁Ville": 8967,
      "▁Arc": 8968,
      "▁Manuel": 8969,
      "▁supérieur": 8970,
      "ATION": 8971,
      "▁grec": 8972,
      "▁Alors": 8973,
      "▁singer": 8974,
      "low": 8975,
      "inte": 8976,
      "anged": 8977,
      "▁Serge": 8978,
      "_g": 8979,
      "ynas": 8980,
      "▁mas": 8981,
      "▁Bu": 8982,
      "▁Dri": 8983,
      "iés": 8984,
      "▁Greek": 8985,
      "▁Six": 8986,
      "usammen": 8987,
      "▁Politi": 8988,
      "PYG": 8989,
      "ems": 8990,
      "▁sorte": 8991,
      "final": 8992,
      "▁Call": 8993,
      "ining": 8994,
      "▁Follow": 8995,
      "▁frame": 8996,
      "resh": 8997,
      "▁améli": 8998,
      "▁Duke": 8999,
      "▁intéress": 9000,
      "▁ran": 9001,
      "▁Common": 9002,
      "RS": 9003,
      "▁Haut": 9004,
      "▁vé": 9005,
      "▁Rio": 9006,
      "▁termine": 9007,
      "ów": 9008,
      "▁Kan": 9009,
      "adores": 9010,
      "Ref": 9011,
      "▁Gener": 9012,
      "▁poet": 9013,
      "▁collè": 9014,
      "organ": 9015,
      "▁campagne": 9016,
      "▁Terre": 9017,
      "rai": 9018,
      "rage ": 9019,
      "▁Original": 9020,
      "▁OF": 9021,
      "▁rugby": 9022,
      "▁couple": 9023,
      ".).": 9024,
      "▁Scottish": 9025,
      "quis": 9026,
      "uler": 9027,
      "▁Survey": 9028,
      "▁reached": 9029,
      "▁Avenue": 9030,
      "▁arrive": 9031,
      "▁Ent": 9032,
      "▁Philadelph": 9033,
      "▁Wolf": 9034,
      "query": 9035,
      "▁cathol": 9036,
      "Prov": 9037,
      "py": 9038,
      "▁VF ": 9039,
      "▁arts": 9040,
      "Handler": 9041,
      "▁engag": 9042,
      "ersion": 9043,
      "ieuse": 9044,
      "▁gla": 9045,
      "onyme": 9046,
      "UE": 9047,
      "▁Constant": 9048,
      "▁capitale": 9049,
      "▁populaire": 9050,
      "quoi": 9051,
      "▁Bry": 9052,
      "ered": 9053,
      "lyn": 9054,
      "zech": 9055,
      "tainment": 9056,
      "▁dir": 9057,
      "tured": 9058,
      "finale": 9059,
      "▁Fair": 9060,
      "▁bound": 9061,
      "pti": 9062,
      "ean": 9063,
      "▁Monsieur": 9064,
      "▁href": 9065,
      "▁pratique": 9066,
      "▁states": 9067,
      "▁satis": 9068,
      "▁Ivan": 9069,
      "▁Batt": 9070,
      "▁background": 9071,
      "▁necess": 9072,
      "ifer": 9073,
      "▁malad": 9074,
      "▁cant": 9075,
      "_list": 9076,
      "▁encuentra": 9077,
      "title": 9078,
      "enta": 9079,
      "▁feet": 9080,
      "▁sound": 9081,
      " G": 9082,
      "Stre": 9083,
      "▁tag": 9084,
      "▁prise": 9085,
      "▁Although": 9086,
      "▁night": 9087,
      "});": 9088,
      "▁eines": 9089,
      "Doxy": 9090,
      "▁\"\\": 9091,
      "irk": 9092,
      "▁operations": 9093,
      "▁incorpor": 9094,
      "++)": 9095,
      "iny": 9096,
      "assert": 9097,
      "ulaires": 9098,
      "▁forte": 9099,
      "èles": 9100,
      "▁Later": 9101,
      "arts": 9102,
      "▁aqu": 9103,
      "▁Berg": 9104,
      "▁intit": 9105,
      "ips": 9106,
      "itif": 9107,
      "▁hier": 9108,
      "▁contrib": 9109,
      "▁budget": 9110,
      "▁maintenant": 9111,
      "▁(°": 9112,
      "▁attended": 9113,
      "irme": 9114,
      "▁manifest": 9115,
      "gang": 9116,
      "▁peuple": 9117,
      "▁canc": 9118,
      "▁Development": 9119,
      "enth": 9120,
      "▁efforts": 9121,
      "▁Wol": 9122,
      "▁mö": 9123,
      "lung": 9124,
      "▁architecture": 9125,
      "ouis": 9126,
      "▁stri": 9127,
      "▁unsigned": 9128,
      "▁fmt": 9129,
      "▁villages": 9130,
      "etts": 9131,
      "===": 9132,
      "▁ber": 9133,
      "amiento": 9134,
      "ließ": 9135,
      "▁entreprises": 9136,
      "▁Déc": 9137,
      "▁Gren": 9138,
      "▁female": 9139,
      "(&": 9140,
      "▁decided": 9141,
      "▁Arbitrage ": 9142,
      "▁purch": 9143,
      "▁possède": 9144,
      "▁Christoph": 9145,
      "▁Fal": 9146,
      "▁Spring": 9147,
      "▁choses": 9148,
      "▁masc": 9149,
      "▁grav": 9150,
      "atoires": 9151,
      "▁Mai": 9152,
      "ió": 9153,
      "esso": 9154,
      "▁polic": 9155,
      "▁classes": 9156,
      "itations": 9157,
      "▁GT": 9158,
      "▁Fore": 9159,
      "▁proche": 9160,
      "*/": 9161,
      "duire": 9162,
      "▁chair": 9163,
      "prise": 9164,
      "▁TR": 9165,
      "www": 9166,
      "IO": 9167,
      "▁Résultats": 9168,
      "▁competi": 9169,
      "ée ": 9170,
      "▁seiner": 9171,
      "▁Culture": 9172,
      "▁bul": 9173,
      "▁organization": 9174,
      "▁montr": 9175,
      "lice": 9176,
      "▁independent": 9177,
      "▁familia": 9178,
      "zens": 9179,
      "▁Hospital": 9180,
      "exp": 9181,
      "Base": 9182,
      "angle": 9183,
      "ésie": 9184,
      "▁contact": 9185,
      "▁Rab": 9186,
      "▁software": 9187,
      "▁har": 9188,
      "▁huit": 9189,
      "▁Antoine": 9190,
      "DP": 9191,
      "▁product": 9192,
      "▁eventually": 9193,
      "sel": 9194,
      "▁batter": 9195,
      "▁retrouve": 9196,
      "▁Fire": 9197,
      "▁Ry": 9198,
      "▁Civil": 9199,
      "wner": 9200,
      "▁NS": 9201,
      "▁Lux": 9202,
      "_e": 9203,
      "▁Ten": 9204,
      "▁Marine": 9205,
      "Y_": 9206,
      "rada": 9207,
      "▁annonce": 9208,
      "▁Parc": 9209,
      "itime": 9210,
      "xx": 9211,
      "▁want": 9212,
      "▁BC": 9213,
      "▁rather": 9214,
      "amples": 9215,
      "▁occur": 9216,
      "▁recensement": 9217,
      "ibility": 9218,
      "esota": 9219,
      "▁Dutch": 9220,
      "body": 9221,
      "▁Pologne": 9222,
      "cd": 9223,
      "▁Institut": 9224,
      "▁chré": 9225,
      "▁url": 9226,
      "{\"": 9227,
      "▁atteint": 9228,
      "DR": 9229,
      "▁Stef": 9230,
      "▁dimin": 9231,
      "Com": 9232,
      "incia": 9233,
      "▁gestion": 9234,
      "itre": 9235,
      "▁Foundation": 9236,
      "▁Netherlands": 9237,
      "▁carte": 9238,
      "gers": 9239,
      "▁proven": 9240,
      "▁Design": 9241,
      "olis": 9242,
      "▁cases": 9243,
      "▁petits": 9244,
      "@{": 9245,
      "Gener": 9246,
      "\\-": 9247,
      "▁towards": 9248,
      "▁(†": 9249,
      "▁Hein": 9250,
      "Fac": 9251,
      "pping": 9252,
      "▁XVI": 9253,
      "▁operation": 9254,
      "▁CL": 9255,
      "▁fréqu": 9256,
      "▁Amb": 9257,
      "▁Gallery": 9258,
      "▁livres": 9259,
      "append": 9260,
      "êche": 9261,
      "▁tracks": 9262,
      "úl": 9263,
      "▁competed": 9264,
      "▁exclus": 9265,
      "▁edition": 9266,
      "▁defeated": 9267,
      "▁Media": 9268,
      "IB": 9269,
      "'),": 9270,
      "igo": 9271,
      "▁Samuel": 9272,
      "▁Master": 9273,
      "anies": 9274,
      "avier": 9275,
      "Image": 9276,
      "▁additional": 9277,
      "▁rent": 9278,
      "▁festival": 9279,
      "▁principe": 9280,
      "▁Track": 9281,
      "▁Add": 9282,
      "▁Vel": 9283,
      "▁institutions": 9284,
      "▁Three": 9285,
      "▁actor": 9286,
      "▁Health": 9287,
      "Attribute": 9288,
      "▁Alexandre": 9289,
      "run": 9290,
      "▁allowed": 9291,
      "▁Gib": 9292,
      "▁kind": 9293,
      "▁Cou": 9294,
      "▁sanc": 9295,
      "▁régiment": 9296,
      "▁What": 9297,
      "▁besoin": 9298,
      "édie": 9299,
      "▁Od": 9300,
      "▁https": 9301,
      "▁sports": 9302,
      "nem": 9303,
      "▁Mans": 9304,
      "eline": 9305,
      "enen": 9306,
      " D": 9307,
      "▁Family": 9308,
      "eri": 9309,
      "}}\\": 9310,
      "▁Vereinig": 9311,
      "lines": 9312,
      "▁pare": 9313,
      "▁tomb": 9314,
      "▁master": 9315,
      "voir": 9316,
      "▁relie": 9317,
      "▁mark": 9318,
      "▁featuring": 9319,
      "atro": 9320,
      "▁agent": 9321,
      "idential": 9322,
      "▁Hub": 9323,
      "%).": 9324,
      "ardin": 9325,
      "lable": 9326,
      "▁comté": 9327,
      "ielle": 9328,
      "▁Position": 9329,
      "ancia": 9330,
      "tity": 9331,
      "vens": 9332,
      "eron": 9333,
      "▁itself": 9334,
      "liers": 9335,
      "criptions": 9336,
      "▁inférie": 9337,
      "▁Billboard": 9338,
      "upo": 9339,
      "▁».": 9340,
      "usc": 9341,
      "▁cycl": 9342,
      "▁Ont": 9343,
      "▁seine": 9344,
      "▁Bibli": 9345,
      "▁Sac": 9346,
      "▁move": 9347,
      "▁superficie": 9348,
      "▁big": 9349,
      "OW": 9350,
      "▁Sweden": 9351,
      "▁legal": 9352,
      "eman": 9353,
      "▁audi": 9354,
      "▁got": 9355,
      "ulf": 9356,
      "▁retired": 9357,
      "kee": 9358,
      "▁auteurs": 9359,
      "▁Vier": 9360,
      "object": 9361,
      "byte": 9362,
      "▁PR": 9363,
      "▁Pun": 9364,
      "▁AM": 9365,
      "▁producer": 9366,
      "▁Kil": 9367,
      "uito": 9368,
      "▁Kun": 9369,
      "▁Minnesota": 9370,
      "▁Personn": 9371,
      "ifique": 9372,
      "server": 9373,
      "▁impro": 9374,
      "▁Chi": 9375,
      "▁Präsident": 9376,
      "vre": 9377,
      "oda": 9378,
      "%,": 9379,
      "push": 9380,
      "▁Title": 9381,
      "achus": 9382,
      "zie": 9383,
      "▁Earl": 9384,
      "▁secteur": 9385,
      "antry": 9386,
      "▁lettres": 9387,
      "verb": 9388,
      "▁institution": 9389,
      "▁arc": 9390,
      "▁depend": 9391,
      "▁cf": 9392,
      "▁René": 9393,
      "see": 9394,
      "▁zwischen": 9395,
      "▁ej": 9396,
      "▁compris": 9397,
      "▁Mitglied": 9398,
      "ability": 9399,
      "▁poin": 9400,
      "ANT": 9401,
      "▁saw": 9402,
      "DA": 9403,
      "▁célè": 9404,
      "▁Qualification": 9405,
      "▁Jersey": 9406,
      "▁maître": 9407,
      "▁condam": 9408,
      "empty": 9409,
      "▁encou": 9410,
      "▁owned": 9411,
      "zel": 9412,
      "rétaire": 9413,
      "onner": 9414,
      "▁rejoint": 9415,
[...]
